<s>	0
<pad>	0
</s>	0
<unk>	0
<0x00>	0
<0x01>	0
<0x02>	0
<0x03>	0
<0x04>	0
<0x05>	0
<0x06>	0
<0x07>	0
<0x08>	0
<0x09>	0
<0x0A>	0
<0x0B>	0
<0x0C>	0
<0x0D>	0
<0x0E>	0
<0x0F>	0
<0x10>	0
<0x11>	0
<0x12>	0
<0x13>	0
<0x14>	0
<0x15>	0
<0x16>	0
<0x17>	0
<0x18>	0
<0x19>	0
<0x1A>	0
<0x1B>	0
<0x1C>	0
<0x1D>	0
<0x1E>	0
<0x1F>	0
<0x20>	0
<0x21>	0
<0x22>	0
<0x23>	0
<0x24>	0
<0x25>	0
<0x26>	0
<0x27>	0
<0x28>	0
<0x29>	0
<0x2A>	0
<0x2B>	0
<0x2C>	0
<0x2D>	0
<0x2E>	0
<0x2F>	0
<0x30>	0
<0x31>	0
<0x32>	0
<0x33>	0
<0x34>	0
<0x35>	0
<0x36>	0
<0x37>	0
<0x38>	0
<0x39>	0
<0x3A>	0
<0x3B>	0
<0x3C>	0
<0x3D>	0
<0x3E>	0
<0x3F>	0
<0x40>	0
<0x41>	0
<0x42>	0
<0x43>	0
<0x44>	0
<0x45>	0
<0x46>	0
<0x47>	0
<0x48>	0
<0x49>	0
<0x4A>	0
<0x4B>	0
<0x4C>	0
<0x4D>	0
<0x4E>	0
<0x4F>	0
<0x50>	0
<0x51>	0
<0x52>	0
<0x53>	0
<0x54>	0
<0x55>	0
<0x56>	0
<0x57>	0
<0x58>	0
<0x59>	0
<0x5A>	0
<0x5B>	0
<0x5C>	0
<0x5D>	0
<0x5E>	0
<0x5F>	0
<0x60>	0
<0x61>	0
<0x62>	0
<0x63>	0
<0x64>	0
<0x65>	0
<0x66>	0
<0x67>	0
<0x68>	0
<0x69>	0
<0x6A>	0
<0x6B>	0
<0x6C>	0
<0x6D>	0
<0x6E>	0
<0x6F>	0
<0x70>	0
<0x71>	0
<0x72>	0
<0x73>	0
<0x74>	0
<0x75>	0
<0x76>	0
<0x77>	0
<0x78>	0
<0x79>	0
<0x7A>	0
<0x7B>	0
<0x7C>	0
<0x7D>	0
<0x7E>	0
<0x7F>	0
<0x80>	0
<0x81>	0
<0x82>	0
<0x83>	0
<0x84>	0
<0x85>	0
<0x86>	0
<0x87>	0
<0x88>	0
<0x89>	0
<0x8A>	0
<0x8B>	0
<0x8C>	0
<0x8D>	0
<0x8E>	0
<0x8F>	0
<0x90>	0
<0x91>	0
<0x92>	0
<0x93>	0
<0x94>	0
<0x95>	0
<0x96>	0
<0x97>	0
<0x98>	0
<0x99>	0
<0x9A>	0
<0x9B>	0
<0x9C>	0
<0x9D>	0
<0x9E>	0
<0x9F>	0
<0xA0>	0
<0xA1>	0
<0xA2>	0
<0xA3>	0
<0xA4>	0
<0xA5>	0
<0xA6>	0
<0xA7>	0
<0xA8>	0
<0xA9>	0
<0xAA>	0
<0xAB>	0
<0xAC>	0
<0xAD>	0
<0xAE>	0
<0xAF>	0
<0xB0>	0
<0xB1>	0
<0xB2>	0
<0xB3>	0
<0xB4>	0
<0xB5>	0
<0xB6>	0
<0xB7>	0
<0xB8>	0
<0xB9>	0
<0xBA>	0
<0xBB>	0
<0xBC>	0
<0xBD>	0
<0xBE>	0
<0xBF>	0
<0xC0>	0
<0xC1>	0
<0xC2>	0
<0xC3>	0
<0xC4>	0
<0xC5>	0
<0xC6>	0
<0xC7>	0
<0xC8>	0
<0xC9>	0
<0xCA>	0
<0xCB>	0
<0xCC>	0
<0xCD>	0
<0xCE>	0
<0xCF>	0
<0xD0>	0
<0xD1>	0
<0xD2>	0
<0xD3>	0
<0xD4>	0
<0xD5>	0
<0xD6>	0
<0xD7>	0
<0xD8>	0
<0xD9>	0
<0xDA>	0
<0xDB>	0
<0xDC>	0
<0xDD>	0
<0xDE>	0
<0xDF>	0
<0xE0>	0
<0xE1>	0
<0xE2>	0
<0xE3>	0
<0xE4>	0
<0xE5>	0
<0xE6>	0
<0xE7>	0
<0xE8>	0
<0xE9>	0
<0xEA>	0
<0xEB>	0
<0xEC>	0
<0xED>	0
<0xEE>	0
<0xEF>	0
<0xF0>	0
<0xF1>	0
<0xF2>	0
<0xF3>	0
<0xF4>	0
<0xF5>	0
<0xF6>	0
<0xF7>	0
<0xF8>	0
<0xF9>	0
<0xFA>	0
<0xFB>	0
<0xFC>	0
<0xFD>	0
<0xFE>	0
<0xFF>	0
an	-0
▁d	-1
▁m	-2
▁s	-3
er	-4
en	-5
▁p	-6
▁k	-7
ar	-8
▁b	-9
ang	-10
in	-11
at	-12
▁t	-13
ak	-14
▁.	-15
al	-16
ah	-17
un	-18
▁,	-19
as	-20
am	-21
em	-22
▁di	-23
ya	-24
ad	-25
▁se	-26
▁y	-27
eng	-28
ik	-29
tu	-30
▁yang	-31
▁l	-32
ap	-33
el	-34
is	-35
kan	-36
▁h	-37
▁j	-38
▁in	-39
▁dan	-40
▁men	-41
on	-42
▁ke	-43
it	-44
il	-45
▁ber	-46
ga	-47
▁n	-48
ing	-49
us	-50
or	-51
es	-52
▁r	-53
▁ter	-54
ur	-55
▁c	-56
▁mem	-57
nya	-58
akan	-59
ari	-60
ut	-61
▁-	-62
id	-63
▁per	-64
ul	-65
um	-66
ung	-67
ada	-68
ih	-69
uk	-70
ir	-71
▁g	-72
engan	-73
eb	-74
▁an	-75
▁un	-76
ol	-77
▁dengan	-78
tuk	-79
ek	-80
ag	-81
▁meng	-82
▁ini	-83
▁i	-84
ara	-85
et	-86
au	-87
▁untuk	-88
da	-89
▁w	-90
ti	-91
ba	-92
▁dari	-93
▁sa	-94
asi	-95
alam	-96
im	-97
alah	-98
ud	-99
ai	-100
▁pen	-101
bu	-102
ia	-103
om	-104
▁2	-105
▁f	-106
▁tid	-107
amp	-108
▁1	-109
ot	-110
▁pr	-111
▁tidak	-112
aw	-113
up	-114
si	-115
aku	-116
ain	-117
ama	-118
▁ad	-119
ok	-120
▁at	-121
▁(	-122
adi	-123
▁)	-124
anya	-125
ab	-126
▁dalam	-127
ikan	-128
▁anda	-129
▁mer	-130
▁bis	-131
ian	-132
▁itu	-133
apat	-134
▁pada	-135
eh	-136
per	-137
ja	-138
▁pem	-139
▁mas	-140
▁a	-141
▁akan	-142
angan	-143
▁bisa	-144
uh	-145
ita	-146
▁kar	-147
os	-148
▁:	-149
▁adalah	-150
ta	-151
ep	-152
ed	-153
atan	-154
▁mel	-155
apa	-156
▁ju	-157
▁sel	-158
ana	-159
▁kam	-160
orang	-161
eg	-162
ent	-163
▁sem	-164
wa	-165
▁atau	-166
▁ban	-167
▁peng	-168
▁bah	-169
atu	-170
yak	-171
▁juga	-172
ika	-173
▁ada	-174
ber	-175
▁menj	-176
ena	-177
▁har	-178
baga	-179
udah	-180
od	-181
▁ba	-182
asa	-183
ata	-184
ali	-185
▁dapat	-186
ant	-187
▁sek	-188
▁?	-189
ua	-190
oleh	-191
ebih	-192
▁..	-193
ter	-194
▁20	-195
amb	-196
▁;	-197
angg	-198
aj	-199
agi	-200
og	-201
bagai	-202
and	-203
ip	-204
▁ing	-205
end	-206
▁kita	-207
▁kem	-208
ebut	-209
▁al	-210
▁tah	-211
▁karena	-212
▁ters	-213
tr	-214
▁saya	-215
ay	-216
▁lebih	-217
aran	-218
▁orang	-219
itu	-220
▁ser	-221
elah	-222
ati	-223
▁meny	-224
angk	-225
ong	-226
▁ind	-227
▁o	-228
▁oleh	-229
lah	-230
api	-231
ub	-232
alu	-233
▁ak	-234
▁"	-235
emp	-236
inya	-237
▁aku	-238
▁v	-239
▁menjadi	-240
eka	-241
▁dis	-242
isi	-243
iki	-244
ukan	-245
▁/	-246
▁sudah	-247
▁seb	-248
▁lain	-249
akukan	-250
▁bar	-251
▁kel	-252
ac	-253
uan	-254
▁tersebut	-255
▁mak	-256
▁sebagai	-257
gun	-258
▁sang	-259
▁banyak	-260
▁3	-261
▁...	-262
▁mereka	-263
▁kep	-264
▁memil	-265
▁memb	-266
▁hal	-267
▁kal	-268
ib	-269
gi	-270
▁ap	-271
alan	-272
▁mend	-273
▁satu	-274
ahan	-275
aya	-276
▁ng	-277
▁ya	-278
▁ker	-279
▁bel	-280
cara	-281
▁ag	-282
▁kon	-283
perti	-284
▁as	-285
op	-286
▁pas	-287
▁tahun	-288
▁201	-289
▁kami	-290
▁sangat	-291
▁seperti	-292
▁saat	-293
iri	-294
aan	-295
buat	-296
itas	-297
uj	-298
▁0	-299
▁jika	-300
▁ben	-301
▁bahwa	-302
ungan	-303
▁harus	-304
▁kes	-305
▁ar	-306
ob	-307
aman	-308
anj	-309
ri	-310
▁memiliki	-311
▁dil	-312
ew	-313
▁beb	-314
▁sed	-315
▁indon	-316
▁menc	-317
asil	-318
▁baik	-319
oh	-320
ingk	-321
emb	-322
unya	-323
▁dik	-324
▁dia	-325
▁set	-326
▁man	-327
▁si	-328
▁pel	-329
▁pert	-330
gunakan	-331
esia	-332
ingga	-333
▁tr	-334
uar	-335
asan	-336
▁apa	-337
▁ses	-338
▁tak	-339
▁hanya	-340
▁indonesia	-341
▁anak	-342
esar	-343
na	-344
▁bi	-345
ungk	-346
ihat	-347
int	-348
▁!	-349
▁tan	-350
▁kom	-351
▁nam	-352
▁ket	-353
ind	-354
▁samp	-355
▁ku	-356
▁5	-357
▁e	-358
▁seh	-359
▁su	-360
▁bu	-361
ist	-362
usah	-363
▁4	-364
▁para	-365
orm	-366
▁saja	-367
▁bers	-368
▁tet	-369
uran	-370
ic	-371
empat	-372
▁berk	-373
▁amp	-374
▁secara	-375
▁membuat	-376
▁pend	-377
▁dit	-378
ala	-379
▁cara	-380
▁bag	-381
▁beber	-382
ow	-383
ota	-384
▁beberapa	-385
▁salah	-386
▁dip	-387
ine	-388
yar	-389
▁tent	-390
▁maka	-391
▁ka	-392
▁telah	-393
▁kamu	-394
▁hari	-395
▁re	-396
angs	-397
▁dim	-398
▁mengh	-399
▁semua	-400
▁on	-401
▁wak	-402
▁member	-403
▁berb	-404
▁pemb	-405
▁kec	-406
▁lagi	-407
ini	-408
entu	-409
▁jadi	-410
▁is	-411
▁rum	-412
angkan	-413
buh	-414
af	-415
▁terl	-416
ingg	-417
arkan	-418
▁tapi	-419
▁masih	-420
apan	-421
eun	-422
▁st	-423
▁u	-424
oduk	-425
▁namun	-426
▁ti	-427
▁bagi	-428
arang	-429
ikut	-430
▁besar	-431
▁terb	-432
▁so	-433
▁neg	-434
▁pun	-435
uka	-436
▁tu	-437
▁mul	-438
ec	-439
▁terj	-440
▁mau	-441
▁inf	-442
ungkin	-443
▁19	-444
anan	-445
▁or	-446
hir	-447
▁dib	-448
▁setelah	-449
upakan	-450
▁baru	-451
▁ia	-452
▁min	-453
▁).	-454
▁melakukan	-455
▁send	-456
▁sama	-457
imp	-458
▁th	-459
aks	-460
ina	-461
▁waktu	-462
▁harga	-463
▁menggunakan	-464
▁produk	-465
ku	-466
▁rumah	-467
line	-468
▁merupakan	-469
ikasi	-470
▁&	-471
▁um	-472
buah	-473
onal	-474
annya	-475
ont	-476
▁sej	-477
pun	-478
idup	-479
main	-480
▁tentang	-481
▁pes	-482
▁sp	-483
unj	-484
▁ingin	-485
▁res	-486
atkan	-487
▁sebuah	-488
▁kh	-489
▁yaitu	-490
▁sep	-491
▁tempat	-492
▁sampai	-493
epat	-494
engk	-495
art	-496
▁online	-497
▁sendiri	-498
▁ant	-499
▁mendapat	-500
▁ked	-501
ingan	-502
▁atas	-503
mu	-504
ungg	-505
▁des	-506
usia	-507
▁serta	-508
ulan	-509
ra	-510
▁pal	-511
▁bukan	-512
awa	-513
▁sak	-514
▁tim	-515
▁ny	-516
▁ga	-517
▁makan	-518
▁memper	-519
▁mes	-520
lu	-521
tuh	-522
if	-523
▁sehingga	-524
▁seti	-525
▁kepada	-526
▁pro	-527
akat	-528
▁kas	-529
▁peny	-530
▁dir	-531
uhan	-532
▁gr	-533
▁6	-534
▁sen	-535
▁10	-536
▁bert	-537
▁sesu	-538
▁ut	-539
▁mus	-540
arta	-541
ima	-542
▁sebel	-543
ting	-544
▁keb	-545
arah	-546
▁kur	-547
▁pern	-548
▁sebelum	-549
▁war	-550
▁lan	-551
ihan	-552
▁ch	-553
▁nya	-554
▁pers	-555
▁pul	-556
olah	-557
pa	-558
▁kali	-559
▁da	-560
▁q	-561
▁la	-562
ui	-563
▁kota	-564
▁berh	-565
▁kr	-566
▁dilakukan	-567
▁bagian	-568
▁tem	-569
tif	-570
▁kalau	-571
eda	-572
tor	-573
▁ob	-574
▁setiap	-575
▁mungkin	-576
▁benar	-577
ila	-578
▁200	-579
erja	-580
▁pak	-581
▁agar	-582
▁ketika	-583
le	-584
▁7	-585
▁seorang	-586
apkan	-587
ukup	-588
▁air	-589
unia	-590
ju	-591
▁am	-592
▁com	-593
atakan	-594
eks	-595
▁kau	-596
▁co	-597
▁ay	-598
▁lainnya	-599
▁bl	-600
▁seg	-601
ch	-602
▁did	-603
▁mah	-604
had	-605
ahkan	-606
▁terk	-607
▁berbagai	-608
▁pol	-609
era	-610
▁kons	-611
▁sm	-612
unan	-613
angsung	-614
▁cukup	-615
▁dunia	-616
▁sekali	-617
▁memberikan	-618
▁sh	-619
awan	-620
anc	-621
▁inter	-622
▁terjadi	-623
▁hasil	-624
▁kul	-625
▁8	-626
▁diper	-627
fa	-628
atang	-629
yarakat	-630
▁berd	-631
▁mod	-632
▁lalu	-633
▁kemb	-634
▁jen	-635
edia	-636
ij	-637
▁z	-638
▁masyarakat	-639
▁kata	-640
▁00	-641
▁tetapi	-642
imana	-643
▁mar	-644
▁memang	-645
▁terd	-646
ver	-647
▁komp	-648
▁dua	-649
▁sur	-650
▁keluar	-651
ca	-652
▁ik	-653
▁ken	-654
ro	-655
eri	-656
▁mendapatkan	-657
baik	-658
udian	-659
utu	-660
▁kl	-661
▁belum	-662
▁paling	-663
▁'	-664
▁sum	-665
▁pos	-666
ormasi	-667
tar	-668
▁mulai	-669
ulu	-670
ekerja	-671
udi	-672
▁situ	-673
▁mudah	-674
▁aw	-675
▁sekarang	-676
▁pros	-677
etah	-678
▁perlu	-679
▁memp	-680
▁selain	-681
elas	-682
ensi	-683
▁buk	-684
▁id	-685
▁),	-686
▁negara	-687
man	-688
iran	-689
butuh	-690
arnya	-691
▁pl	-692
▁akhir	-693
▁hidup	-694
▁dem	-695
ulis	-696
urut	-697
esi	-698
▁pemer	-699
▁pernah	-700
gan	-701
ilan	-702
▁mana	-703
inta	-704
▁tel	-705
ans	-706
▁diri	-707
angka	-708
▁kemudian	-709
▁jam	-710
est	-711
▁berl	-712
▁hingga	-713
▁tanpa	-714
▁kerja	-715
alnya	-716
uru	-717
▁mat	-718
inggi	-719
erah	-720
anjut	-721
▁nama	-722
▁pertama	-723
▁te	-724
▁pil	-725
unt	-726
▁melihat	-727
pat	-728
▁dep	-729
▁alam	-730
▁angg	-731
▁kembali	-732
ni	-733
ajar	-734
▁fil	-735
▁jak	-736
▁jangan	-737
▁berp	-738
aki	-739
iswa	-740
▁9	-741
▁informasi	-742
usahaan	-743
▁kat	-744
▁suatu	-745
alui	-746
▁jenis	-747
▁keh	-748
sa	-749
▁pan	-750
ilai	-751
▁langsung	-752
▁antara	-753
olog	-754
ingkat	-755
ogr	-756
▁tinggi	-757
▁bahkan	-758
umlah	-759
inggal	-760
akin	-761
awat	-762
hadap	-763
▁selama	-764
tur	-765
▁tahu	-766
ej	-767
▁and	-768
▁melalui	-769
▁jalan	-770
unc	-771
▁terhadap	-772
▁art	-773
ambil	-774
mas	-775
▁perusahaan	-776
antu	-777
ig	-778
usaha	-779
▁memba	-780
ola	-781
▁baga	-782
▁berikut	-783
▁ul	-784
ori	-785
nis	-786
enal	-787
▁us	-788
▁selalu	-789
▁mur	-790
ilah	-791
▁umum	-792
▁allah	-793
ani	-794
asanya	-795
▁ab	-796
▁br	-797
▁pad	-798
▁manusia	-799
▁kang	-800
ipun	-801
▁beg	-802
alis	-803
▁wis	-804
▁sedang	-805
▁proses	-806
▁put	-807
▁tek	-808
▁tangg	-809
▁rp	-810
▁masalah	-811
engah	-812
▁sesuai	-813
akah	-814
▁sal	-815
ons	-816
▁the	-817
▁bang	-818
▁jakarta	-819
inan	-820
jalan	-821
istem	-822
ump	-823
▁sing	-824
▁bersama	-825
▁intern	-826
▁x	-827
▁kap	-828
▁tetap	-829
▁me	-830
uruh	-831
▁no	-832
▁pemerint	-833
▁sup	-834
▁band	-835
▁mil	-836
▁im	-837
▁de	-838
▁kan	-839
▁ins	-840
enc	-841
ongan	-842
▁permain	-843
▁gun	-844
itar	-845
▁il	-846
caya	-847
▁bak	-848
uc	-849
upa	-850
▁sistem	-851
li	-852
▁situs	-853
▁wan	-854
▁li	-855
▁permainan	-856
oto	-857
ami	-858
▁bagaimana	-859
▁tubuh	-860
▁bahan	-861
▁kecil	-862
▁em	-863
▁digunakan	-864
▁masuk	-865
▁barang	-866
▁luar	-867
▁terus	-868
yakit	-869
▁tok	-870
▁par	-871
▁penting	-872
any	-873
idikan	-874
▁daerah	-875
▁terbaik	-876
▁sering	-877
▁bulan	-878
awab	-879
auh	-880
utan	-881
re	-882
ual	-883
▁menurut	-884
▁masa	-885
▁“	-886
usus	-887
▁ref	-888
▁mis	-889
▁ma	-890
▁begitu	-891
▁hot	-892
▁lap	-893
▁str	-894
▁bat	-895
aja	-896
▁nu	-897
▁perk	-898
▁masing	-899
ode	-900
▁judi	-901
anjang	-902
▁obat	-903
▁lt	-904
▁up	-905
eksi	-906
di	-907
▁bahasa	-908
▁cepat	-909
ebab	-910
uas	-911
00	-912
und	-913
obil	-914
bab	-915
ampu	-916
▁lama	-917
▁wanita	-918
▁en	-919
ame	-920
▁gt	-921
▁baw	-922
hat	-923
▁ac	-924
▁uang	-925
▁kedua	-926
imb	-927
arik	-928
▁tamp	-929
asional	-930
▁kegi	-931
▁penyakit	-932
▁khusus	-933
ologi	-934
▁ri	-935
acam	-936
▁cer	-937
usi	-938
▁na	-939
▁kegiatan	-940
▁mobil	-941
one	-942
ekat	-943
emukan	-944
▁berada	-945
oc	-946
ha	-947
tim	-948
▁apakah	-949
▁pendidikan	-950
atif	-951
ore	-952
▁semakin	-953
▁000	-954
▁kek	-955
lam	-956
▁buat	-957
ort	-958
▁kab	-959
▁mu	-960
▁je	-961
▁met	-962
ên	-963
▁tuj	-964
▁sekitar	-965
▁mengen	-966
▁kabu	-967
yata	-968
▁ru	-969
▁bal	-970
▁tekn	-971
▁bad	-972
▁dih	-973
▁bermain	-974
▁pik	-975
▁makanan	-976
engar	-977
ogram	-978
▁teman	-979
▁of	-980
▁sy	-981
▁sekolah	-982
aian	-983
▁biasanya	-984
▁lok	-985
▁kabupat	-986
▁le	-987
▁mal	-988
▁ibu	-989
▁web	-990
▁jawa	-991
alaman	-992
▁mengg	-993
etahui	-994
▁%	-995
ayanan	-996
omp	-997
▁pemain	-998
▁datang	-999
▁membantu	-1000
▁hotel	-1001
én	-1002
▁ah	-1003
ern	-1004
▁hati	-1005
likasi	-1006
atis	-1007
▁12	-1008
▁keseh	-1009
▁maupun	-1010
▁to	-1011
▁cont	-1012
eli	-1013
▁sat	-1014
tiv	-1015
ukum	-1016
faat	-1017
ungi	-1018
▁bentuk	-1019
hi	-1020
▁data	-1021
asar	-1022
▁kurang	-1023
▁yg	-1024
▁suk	-1025
▁bisnis	-1026
engg	-1027
uw	-1028
▁pemerintah	-1029
▁lem	-1030
yang	-1031
mi	-1032
itan	-1033
anti	-1034
▁program	-1035
▁diber	-1036
▁seluruh	-1037
▁be	-1038
▁mener	-1039
▁qu	-1040
gas	-1041
▁ot	-1042
▁el	-1043
ma	-1044
▁punya	-1045
▁kesehatan	-1046
▁gamb	-1047
▁ef	-1048
▁din	-1049
ubungan	-1050
▁trans	-1051
lo	-1052
▁uj	-1053
▁tip	-1054
▁memilih	-1055
▁dr	-1056
▁blog	-1057
ris	-1058
▁tentu	-1059
▁eks	-1060
▁sil	-1061
aknya	-1062
▁biasa	-1063
▁berbeda	-1064
▁kad	-1065
▁pasti	-1066
▁sk	-1067
▁sebelumnya	-1068
▁penc	-1069
▁jumlah	-1070
oba	-1071
▁pet	-1072
▁fak	-1073
▁kond	-1074
itik	-1075
atur	-1076
ve	-1077
▁ger	-1078
▁mencari	-1079
▁waj	-1080
angkat	-1081
ikit	-1082
ustr	-1083
▁ur	-1084
▁ta	-1085
agian	-1086
▁tar	-1087
▁gu	-1088
▁pe	-1089
▁mengatakan	-1090
▁mampu	-1091
▁mo	-1092
▁rasa	-1093
▁15	-1094
▁terp	-1095
▁tum	-1096
irim	-1097
▁tanggal	-1098
▁penggun	-1099
▁sul	-1100
ki	-1101
ambah	-1102
▁disebut	-1103
▁nilai	-1104
aha	-1105
ilang	-1106
▁sedikit	-1107
▁dic	-1108
▁tik	-1109
apun	-1110
▁hukum	-1111
aru	-1112
▁tert	-1113
▁jauh	-1114
usan	-1115
ira	-1116
▁uk	-1117
▁belajar	-1118
▁pok	-1119
ast	-1120
▁]	-1121
▁buku	-1122
▁tujuan	-1123
unjuk	-1124
▁mata	-1125
▁adanya	-1126
ses	-1127
uhi	-1128
▁ingg	-1129
▁bila	-1130
▁tengah	-1131
asikan	-1132
▁wal	-1133
▁bur	-1134
▁kant	-1135
▁sejak	-1136
▁aplikasi	-1137
iaya	-1138
▁murah	-1139
▁....	-1140
pr	-1141
▁kulit	-1142
omb	-1143
▁ok	-1144
elit	-1145
▁=	-1146
▁jelas	-1147
▁jar	-1148
masuk	-1149
angi	-1150
▁jeung	-1151
▁tangan	-1152
agu	-1153
ubah	-1154
▁dij	-1155
▁tepat	-1156
▁ek	-1157
anda	-1158
▁tern	-1159
▁akhirnya	-1160
antai	-1161
▁pus	-1162
emen	-1163
ula	-1164
▁keluarga	-1165
insi	-1166
utus	-1167
▁pih	-1168
▁wil	-1169
▁tur	-1170
▁termasuk	-1171
▁mengenai	-1172
▁merasa	-1173
▁kalian	-1174
ikian	-1175
▁bawah	-1176
alami	-1177
▁usaha	-1178
▁ib	-1179
▁islam	-1180
tul	-1181
▁had	-1182
engkap	-1183
▁go	-1184
lik	-1185
ungsi	-1186
▁bay	-1187
▁desa	-1188
▁alat	-1189
▁malam	-1190
sit	-1191
▁foto	-1192
edi	-1193
▁menarik	-1194
apai	-1195
▁sar	-1196
▁sosi	-1197
ember	-1198
▁dimana	-1199
otor	-1200
▁bagus	-1201
▁kol	-1202
▁warna	-1203
ake	-1204
ikat	-1205
▁guru	-1206
aksi	-1207
eu	-1208
▁kor	-1209
▁contoh	-1210
oga	-1211
▁kabupaten	-1212
aikan	-1213
onom	-1214
akhir	-1215
▁lakukan	-1216
▁depan	-1217
▁op	-1218
▁sumber	-1219
idang	-1220
▁sah	-1221
alitas	-1222
▁pekerja	-1223
▁jawab	-1224
▁>	-1225
▁anu	-1226
yan	-1227
▁nom	-1228
▁quot	-1229
ide	-1230
▁[	-1231
▁iku	-1232
▁bekerja	-1233
atas	-1234
ajaran	-1235
▁utama	-1236
▁demikian	-1237
▁anggota	-1238
ard	-1239
▁daf	-1240
daya	-1241
▁”	-1242
▁kepala	-1243
▁dig	-1244
▁tiket	-1245
min	-1246
unga	-1247
▁badan	-1248
▁18	-1249
▁siswa	-1250
▁|	-1251
▁sab	-1252
▁bola	-1253
▁11	-1254
▁sakit	-1255
ayah	-1256
▁kondisi	-1257
▁terdapat	-1258
butuhkan	-1259
▁pin	-1260
▁lingk	-1261
ikm	-1262
▁prof	-1263
▁organ	-1264
ebabkan	-1265
asarkan	-1266
amat	-1267
▁dok	-1268
▁pt	-1269
ess	-1270
▁kebutuh	-1271
▁dah	-1272
anding	-1273
▁gambar	-1274
eta	-1275
ban	-1276
▁tiga	-1277
amin	-1278
embangan	-1279
▁seben	-1280
▁lihat	-1281
uta	-1282
etak	-1283
▁ilmu	-1284
▁–	-1285
▁tinggal	-1286
uduk	-1287
▁her	-1288
▁biaya	-1289
▁diba	-1290
▁media	-1291
▁pihak	-1292
▁tanah	-1293
▁pemil	-1294
ikel	-1295
entara	-1296
wan	-1297
▁kelas	-1298
▁_	-1299
▁kebutuhan	-1300
▁dekat	-1301
▁sebagian	-1302
▁dulu	-1303
▁dh	-1304
▁er	-1305
▁daftar	-1306
adikan	-1307
▁film	-1308
unyai	-1309
erta	-1310
ger	-1311
▁terlalu	-1312
akai	-1313
ft	-1314
▁pengh	-1315
entuk	-1316
▁awal	-1317
▁sesuatu	-1318
▁agen	-1319
▁mengan	-1320
▁ram	-1321
ikir	-1322
▁sementara	-1323
▁lah	-1324
ompok	-1325
amu	-1326
▁pria	-1327
▁kej	-1328
anggo	-1329
▁mempunyai	-1330
▁bo	-1331
ord	-1332
ingkatkan	-1333
eorang	-1334
▁negeri	-1335
▁efek	-1336
▁kaw	-1337
▁kamar	-1338
war	-1339
▁suka	-1340
st	-1341
angun	-1342
▁karya	-1343
▁seseorang	-1344
▁gen	-1345
▁bab	-1346
ate	-1347
▁ro	-1348
▁inggris	-1349
▁internet	-1350
▁sebenarnya	-1351
▁siapa	-1352
▁mengalami	-1353
ond	-1354
keun	-1355
ci	-1356
▁terlihat	-1357
▁tingkat	-1358
▁bank	-1359
▁pilihan	-1360
▁kehidup	-1361
▁penelit	-1362
▁sebab	-1363
▁barat	-1364
fat	-1365
▁ternyata	-1366
me	-1367
▁tuhan	-1368
▁sedangkan	-1369
▁fr	-1370
istr	-1371
angsa	-1372
uli	-1373
▁berat	-1374
ug	-1375
ulkan	-1376
imal	-1377
▁ko	-1378
teri	-1379
to	-1380
ph	-1381
▁acara	-1382
▁trad	-1383
▁und	-1384
isan	-1385
▁mesin	-1386
▁menemukan	-1387
ly	-1388
ikuti	-1389
▁dina	-1390
uanya	-1391
▁sini	-1392
▁sin	-1393
aranya	-1394
isasi	-1395
▁gel	-1396
angkah	-1397
angga	-1398
ukung	-1399
▁sosial	-1400
▁segera	-1401
ibat	-1402
▁rek	-1403
kang	-1404
▁sol	-1405
ohon	-1406
▁30	-1407
▁wisata	-1408
antung	-1409
▁bum	-1410
roid	-1411
asaan	-1412
erti	-1413
adaan	-1414
▁keber	-1415
▁siap	-1416
▁aj	-1417
la	-1418
anakan	-1419
▁2018	-1420
▁ingkang	-1421
jaga	-1422
▁kehidupan	-1423
enang	-1424
▁perm	-1425
▁toko	-1426
iv	-1427
▁artikel	-1428
▁jasa	-1429
asiswa	-1430
buhan	-1431
▁komun	-1432
▁rep	-1433
▁dasar	-1434
▁terbaru	-1435
umen	-1436
ampuan	-1437
▁meningkatkan	-1438
▁misalnya	-1439
ambut	-1440
uter	-1441
ainkan	-1442
entukan	-1443
▁wilayah	-1444
araan	-1445
▁beras	-1446
▁pergi	-1447
éh	-1448
▁ped	-1449
▁kasih	-1450
ink	-1451
▁dew	-1452
tus	-1453
▁panjang	-1454
▁nomor	-1455
▁pener	-1456
▁mengetahui	-1457
▁buah	-1458
embang	-1459
▁ora	-1460
▁keter	-1461
▁bidang	-1462
▁lingkungan	-1463
▁pula	-1464
▁pat	-1465
▁pasar	-1466
▁beli	-1467
arti	-1468
▁cal	-1469
tan	-1470
ingin	-1471
▁2013	-1472
▁yak	-1473
▁gol	-1474
▁hubungan	-1475
▁199	-1476
iah	-1477
▁part	-1478
abat	-1479
▁aman	-1480
▁16	-1481
ino	-1482
▁tentunya	-1483
uman	-1484
▁berdasarkan	-1485
aris	-1486
▁hak	-1487
▁kemampuan	-1488
▁aja	-1489
▁laki	-1490
▁14	-1491
yat	-1492
▁berhasil	-1493
▁hij	-1494
unggu	-1495
▁uni	-1496
▁semoga	-1497
omo	-1498
▁kelompok	-1499
▁pang	-1500
iden	-1501
lan	-1502
▁pembel	-1503
▁nasional	-1504
▁kuat	-1505
ait	-1506
▁yo	-1507
uni	-1508
ack	-1509
abila	-1510
▁kartu	-1511
▁jer	-1512
unjukkan	-1513
▁13	-1514
▁jep	-1515
▁poker	-1516
▁rak	-1517
▁macam	-1518
own	-1519
▁munc	-1520
▁maks	-1521
▁model	-1522
▁pekerjaan	-1523
▁he	-1524
▁bek	-1525
ura	-1526
▁ni	-1527
ayu	-1528
▁kualitas	-1529
▁apabila	-1530
▁tidur	-1531
▁game	-1532
▁timur	-1533
▁nah	-1534
▁sub	-1535
▁iki	-1536
▁,"	-1537
▁kanggo	-1538
vel	-1539
isik	-1540
▁nga	-1541
▁desain	-1542
▁perb	-1543
▁it	-1544
▁ngg	-1545
anjutnya	-1546
▁pot	-1547
▁25	-1548
▁pres	-1549
▁warga	-1550
ash	-1551
èn	-1552
▁gratis	-1553
▁perjalan	-1554
alahan	-1555
▁muncul	-1556
▁mb	-1557
inggu	-1558
▁oper	-1559
▁pesawat	-1560
uri	-1561
▁batu	-1562
ji	-1563
▁segala	-1564
▁berarti	-1565
ampir	-1566
▁agama	-1567
▁po	-1568
▁motor	-1569
▁17	-1570
▁teknologi	-1571
▁bakal	-1572
▁kac	-1573
aud	-1574
▁diter	-1575
▁kont	-1576
▁kak	-1577
▁mencapai	-1578
ea	-1579
wah	-1580
▁vide	-1581
▁darah	-1582
tinya	-1583
▁ruang	-1584
arga	-1585
▁penelitian	-1586
▁sw	-1587
amatan	-1588
onomi	-1589
▁lagu	-1590
▁mand	-1591
pl	-1592
▁pi	-1593
▁yakni	-1594
▁layanan	-1595
..	-1596
utama	-1597
percaya	-1598
▁<	-1599
▁keku	-1600
ho	-1601
▁langkah	-1602
▁sebaga	-1603
▁bet	-1604
▁seri	-1605
▁ukuran	-1606
▁terakhir	-1607
▁*	-1608
lim	-1609
▁perjalanan	-1610
▁tulis	-1611
▁sam	-1612
▁terg	-1613
▁ver	-1614
▁tiba	-1615
tua	-1616
▁ge	-1617
▁100	-1618
▁gak	-1619
▁surat	-1620
▁maj	-1621
▁tua	-1622
▁lo	-1623
▁tugas	-1624
▁wajah	-1625
▁mad	-1626
▁selanjutnya	-1627
ungguh	-1628
asilkan	-1629
▁lokasi	-1630
▁do	-1631
▁memas	-1632
ev	-1633
▁kini	-1634
▁cinta	-1635
lukan	-1636
▁kand	-1637
▁daya	-1638
▁dirinya	-1639
ulai	-1640
ajak	-1641
▁video	-1642
▁kend	-1643
urkan	-1644
untungan	-1645
empatan	-1646
▁manfaat	-1647
▁es	-1648
ediakan	-1649
▁anj	-1650
▁mengambil	-1651
▁berjalan	-1652
▁cat	-1653
itur	-1654
▁tab	-1655
ilkan	-1656
umsi	-1657
▁mahasiswa	-1658
▁pusat	-1659
irkan	-1660
▁low	-1661
buatan	-1662
▁posisi	-1663
▁pand	-1664
▁belak	-1665
▁jual	-1666
▁terutama	-1667
▁med	-1668
▁lat	-1669
iku	-1670
uma	-1671
▁diberikan	-1672
▁pop	-1673
ili	-1674
▁wong	-1675
▁mencoba	-1676
aksanakan	-1677
yah	-1678
▁memen	-1679
phone	-1680
ibadi	-1681
▁tertentu	-1682
bal	-1683
asakan	-1684
ens	-1685
▁penj	-1686
ry	-1687
▁2014	-1688
▁ieu	-1689
▁sus	-1690
iti	-1691
uju	-1692
▁memberi	-1693
▁for	-1694
▁muda	-1695
ubahan	-1696
ukul	-1697
ker	-1698
▁bern	-1699
▁amer	-1700
udara	-1701
▁pemba	-1702
▁sehat	-1703
▁ang	-1704
kipun	-1705
iter	-1706
▁peserta	-1707
tum	-1708
▁2015	-1709
▁univer	-1710
▁prov	-1711
▁putih	-1712
andingan	-1713
▁bayi	-1714
ust	-1715
▁ra	-1716
▁juta	-1717
▁ham	-1718
▁meskipun	-1719
▁websit	-1720
encana	-1721
inasi	-1722
▁kasus	-1723
▁rel	-1724
▁bangsa	-1725
▁dibuat	-1726
▁perubahan	-1727
▁cerita	-1728
erita	-1729
▁pember	-1730
▁tamb	-1731
▁ikan	-1732
▁dom	-1733
▁boleh	-1734
▁pertanya	-1735
▁ki	-1736
▁olah	-1737
▁2016	-1738
▁resmi	-1739
jual	-1740
▁berasal	-1741
unjung	-1742
anggap	-1743
▁menyebabkan	-1744
wi	-1745
▁disini	-1746
angat	-1747
▁kontr	-1748
▁gad	-1749
▁membeli	-1750
estasi	-1751
▁menunjukkan	-1752
akt	-1753
▁bin	-1754
▁kamp	-1755
▁ged	-1756
▁kantor	-1757
▁lengkap	-1758
▁ed	-1759
empuan	-1760
▁.&	-1761
▁ekonomi	-1762
kah	-1763
ator	-1764
▁website	-1765
▁mengk	-1766
iknya	-1767
▁faktor	-1768
load	-1769
▁ana	-1770
askan	-1771
▁dikenal	-1772
▁ist	-1773
▁berj	-1774
emu	-1775
▁perempuan	-1776
▁bantu	-1777
▁sana	-1778
▁saw	-1779
ase	-1780
▁soal	-1781
▁;/	-1782
▁selatan	-1783
▁ir	-1784
▁jepang	-1785
▁mati	-1786
▁alami	-1787
▁itulah	-1788
▁24	-1789
▁menerima	-1790
▁sun	-1791
▁fungsi	-1792
▁suara	-1793
▁hit	-1794
eran	-1795
impin	-1796
ck	-1797
aba	-1798
▁ikut	-1799
▁taruhan	-1800
▁rah	-1801
▁menyel	-1802
▁alasan	-1803
▁terima	-1804
▁lowongan	-1805
▁mengel	-1806
ender	-1807
▁rata	-1808
▁walau	-1809
▁membawa	-1810
get	-1811
ipt	-1812
éta	-1813
▁minggu	-1814
▁asal	-1815
▁komputer	-1816
uti	-1817
▁pengalaman	-1818
isah	-1819
▁berm	-1820
▁dibanding	-1821
vi	-1822
--	-1823
▁akibat	-1824
▁membutuhkan	-1825
ungkan	-1826
ongk	-1827
▁ex	-1828
▁pertanyaan	-1829
co	-1830
asih	-1831
▁luas	-1832
ns	-1833
▁teg	-1834
▁menit	-1835
▁meninggal	-1836
▁kenapa	-1837
ublik	-1838
▁jal	-1839
▁hampir	-1840
▁fl	-1841
▁2012	-1842
▁link	-1843
▁keuntungan	-1844
▁sulit	-1845
▁sih	-1846
atasi	-1847
▁terc	-1848
▁coba	-1849
antan	-1850
oran	-1851
asia	-1852
ers	-1853
▁menuju	-1854
▁bandung	-1855
▁umumnya	-1856
endah	-1857
ail	-1858
tivitas	-1859
▁saka	-1860
▁aktif	-1861
antik	-1862
urn	-1863
▁satunya	-1864
▁lanjut	-1865
ateg	-1866
awarkan	-1867
▁ji	-1868
ity	-1869
▁ph	-1870
▁banget	-1871
ef	-1872
aturan	-1873
▁pulau	-1874
▁penuh	-1875
hatikan	-1876
apak	-1877
▁gi	-1878
▁den	-1879
olong	-1880
▁membaca	-1881
arian	-1882
enangan	-1883
▁inv	-1884
ket	-1885
▁kesempatan	-1886
▁nanti	-1887
▁sik	-1888
▁sis	-1889
▁sebesar	-1890
▁amerika	-1891
▁terkait	-1892
▁materi	-1893
▁pilih	-1894
▁pesan	-1895
▁sayang	-1896
anja	-1897
▁angka	-1898
ation	-1899
amanan	-1900
▁ii	-1901
▁kaya	-1902
angunan	-1903
▁menyer	-1904
▁main	-1905
▁ps	-1906
▁menulis	-1907
▁coc	-1908
oll	-1909
▁form	-1910
▁lew	-1911
tikan	-1912
▁21	-1913
▁ayah	-1914
▁usia	-1915
▁apal	-1916
▁rambut	-1917
res	-1918
▁pasangan	-1919
aksana	-1920
▁fitur	-1921
▁jaringan	-1922
▁jat	-1923
▁percaya	-1924
han	-1925
urun	-1926
rasi	-1927
▁dokter	-1928
alkan	-1929
▁memer	-1930
▁tind	-1931
ebar	-1932
▁rem	-1933
▁stand	-1934
▁log	-1935
▁sejarah	-1936
▁diant	-1937
▁laut	-1938
▁perkembangan	-1939
▁tips	-1940
ov	-1941
▁calon	-1942
ikmati	-1943
etahuan	-1944
▁perd	-1945
▁ataupun	-1946
▁car	-1947
▁musim	-1948
▁bunga	-1949
▁gunakan	-1950
raga	-1951
▁provinsi	-1952
awi	-1953
▁metode	-1954
▁presiden	-1955
gab	-1956
▁kayu	-1957
agam	-1958
▁tau	-1959
sia	-1960
yek	-1961
elaskan	-1962
▁istr	-1963
▁ide	-1964
▁belakang	-1965
▁budaya	-1966
uler	-1967
▁pukul	-1968
▁indah	-1969
uari	-1970
▁pribadi	-1971
su	-1972
aruh	-1973
▁pantai	-1974
etik	-1975
ujud	-1976
▁pengguna	-1977
▁dana	-1978
▁sisi	-1979
▁panas	-1980
▁tanda	-1981
ahami	-1982
▁mengikuti	-1983
▁info	-1984
▁supaya	-1985
▁univers	-1986
▁kok	-1987
▁apalagi	-1988
▁menang	-1989
ook	-1990
▁terdiri	-1991
▁ha	-1992
▁pertandingan	-1993
▁menjaga	-1994
▁penggunaan	-1995
ks	-1996
▁keti	-1997
▁politik	-1998
▁pelangg	-1999
abis	-2000
ingat	-2001
▁dar	-2002
▁pembangunan	-2003
▁nggak	-2004
▁organisasi	-2005
▁keadaan	-2006
▁pelayanan	-2007
▁jan	-2008
anfa	-2009
▁berman	-2010
ulasi	-2011
▁ent	-2012
▁kaki	-2013
▁bas	-2014
▁dos	-2015
▁pa	-2016
▁perl	-2017
▁new	-2018
▁menghad	-2019
ifikasi	-2020
enaga	-2021
▁bumi	-2022
▁nyaman	-2023
▁pengetahuan	-2024
▁kut	-2025
▁semuanya	-2026
▁sad	-2027
erh	-2028
ampak	-2029
▁cocok	-2030
isme	-2031
▁mi	-2032
▁strateg	-2033
▁gl	-2034
▁bermanfaat	-2035
anyakan	-2036
ono	-2037
ownload	-2038
▁bes	-2039
ult	-2040
usnya	-2041
▁menjalan	-2042
ahal	-2043
▁pagi	-2044
ona	-2045
▁musik	-2046
▁menghasilkan	-2047
▁jad	-2048
akter	-2049
▁keu	-2050
▁pam	-2051
▁smart	-2052
abi	-2053
▁22	-2054
anggung	-2055
▁muslim	-2056
▁selamat	-2057
▁dapatkan	-2058
▁akun	-2059
▁mengur	-2060
▁stu	-2061
▁merah	-2062
▁teu	-2063
esan	-2064
▁cl	-2065
yo	-2066
▁naik	-2067
ekan	-2068
▁manaj	-2069
▁fasil	-2070
mad	-2071
▁asli	-2072
▁penulis	-2073
▁50	-2074
▁produksi	-2075
onton	-2076
▁kud	-2077
êng	-2078
▁teknik	-2079
gaw	-2080
▁membuka	-2081
▁dahulu	-2082
osi	-2083
▁tersedia	-2084
▁ayam	-2085
ulang	-2086
▁industr	-2087
▁sd	-2088
▁agus	-2089
aka	-2090
ganti	-2091
▁cuma	-2092
▁menyediakan	-2093
opi	-2094
▁inilah	-2095
▁sebaik	-2096
▁berupa	-2097
▁iklan	-2098
▁bus	-2099
entar	-2100
asaran	-2101
itif	-2102
ewa	-2103
▁diatas	-2104
▁km	-2105
▁kekuatan	-2106
▁taun	-2107
ér	-2108
▁mengapa	-2109
bit	-2110
▁bali	-2111
port	-2112
▁2011	-2113
▁tenaga	-2114
dung	-2115
arap	-2116
▁bon	-2117
▁paket	-2118
ergi	-2119
▁empat	-2120
▁dag	-2121
embangkan	-2122
▁was	-2123
▁int	-2124
▁rakyat	-2125
▁pikeun	-2126
▁keras	-2127
▁keuangan	-2128
▁ketua	-2129
▁mew	-2130
▁raja	-2131
▁fac	-2132
▁gunung	-2133
▁ev	-2134
▁profesi	-2135
▁unit	-2136
▁sl	-2137
▁malah	-2138
▁wa	-2139
▁reg	-2140
▁terpercaya	-2141
▁kecamatan	-2142
▁silahkan	-2143
▁lewat	-2144
▁kos	-2145
▁berf	-2146
▁utara	-2147
▁turun	-2148
▁kun	-2149
tup	-2150
enti	-2151
▁pendapat	-2152
▁baca	-2153
▁2017	-2154
▁hah	-2155
utusan	-2156
▁sc	-2157
▁kadang	-2158
▁punika	-2159
all	-2160
▁terlebih	-2161
▁pembelajaran	-2162
▁karakter	-2163
tuj	-2164
▁cari	-2165
ill	-2166
ihkan	-2167
jak	-2168
▁yah	-2169
▁gag	-2170
egori	-2171
▁konsep	-2172
▁fasilitas	-2173
▁android	-2174
▁ayat	-2175
▁industri	-2176
▁prakt	-2177
▁seles	-2178
▁;&	-2179
▁ras	-2180
▁tanaman	-2181
uang	-2182
▁san	-2183
▁admin	-2184
uki	-2185
▁ol	-2186
jek	-2187
▁berkembang	-2188
ebihan	-2189
ahaya	-2190
anyak	-2191
▁amb	-2192
▁sifat	-2193
gn	-2194
▁wah	-2195
▁universitas	-2196
▁pu	-2197
ayan	-2198
iptakan	-2199
▁ribu	-2200
▁promo	-2201
▁basa	-2202
unjungi	-2203
ell	-2204
inc	-2205
▁seks	-2206
▁bul	-2207
▁padahal	-2208
▁berita	-2209
oro	-2210
▁disk	-2211
▁olahraga	-2212
▁sejumlah	-2213
▁23	-2214
age	-2215
▁spesi	-2216
ice	-2217
oni	-2218
fer	-2219
▁tradisi	-2220
▁lima	-2221
▁hp	-2222
pada	-2223
▁kalo	-2224
▁menya	-2225
tp	-2226
pek	-2227
ey	-2228
▁artinya	-2229
▁".	-2230
erhana	-2231
▁diketahui	-2232
▁sukses	-2233
▁lay	-2234
▁pah	-2235
▁membangun	-2236
▁meski	-2237
no	-2238
tion	-2239
▁kit	-2240
▁simp	-2241
▁perangkat	-2242
▁."	-2243
▁butuh	-2244
▁tas	-2245
▁cantik	-2246
▁lupa	-2247
▁lemb	-2248
▁ari	-2249
▁tot	-2250
▁klik	-2251
▁cr	-2252
▁mir	-2253
▁kategori	-2254
▁pelat	-2255
▁kemungkin	-2256
▁ali	-2257
▁goog	-2258
bang	-2259
▁rendah	-2260
▁08	-2261
▁modal	-2262
▁undang	-2263
epas	-2264
▁minyak	-2265
▁menurun	-2266
ida	-2267
icara	-2268
▁apapun	-2269
▁bir	-2270
▁hadir	-2271
▁nas	-2272
▁ulasan	-2273
gus	-2274
atnya	-2275
▁gaya	-2276
iman	-2277
▁bebas	-2278
wal	-2279
uarkan	-2280
▁arah	-2281
ht	-2282
▁berg	-2283
▁banj	-2284
▁menyebut	-2285
▁ketiga	-2286
adah	-2287
▁pap	-2288
▁muh	-2289
▁seni	-2290
▁nang	-2291
ela	-2292
▁fa	-2293
inal	-2294
emat	-2295
erj	-2296
▁semp	-2297
▁gar	-2298
ilis	-2299
▁mendukung	-2300
▁sim	-2301
men	-2302
ora	-2303
▁sehari	-2304
ith	-2305
▁mag	-2306
amanya	-2307
▁dadi	-2308
aké	-2309
▁ht	-2310
▁kompet	-2311
▁senang	-2312
▁kemungkinan	-2313
▁kalim	-2314
adang	-2315
▁anjeun	-2316
▁lembaga	-2317
▁norm	-2318
untu	-2319
bo	-2320
unuh	-2321
ampilan	-2322
rah	-2323
ikah	-2324
anfaatkan	-2325
are	-2326
ester	-2327
usak	-2328
▁gej	-2329
▁sederhana	-2330
▁dibandingkan	-2331
▁duduk	-2332
▁akses	-2333
▁tulisan	-2334
▁selesai	-2335
toran	-2336
▁berubah	-2337
▁lum	-2338
▁bint	-2339
▁google	-2340
▁udara	-2341
▁aktivitas	-2342
▁198	-2343
▁bud	-2344
▁angk	-2345
▁wajib	-2346
▁bersih	-2347
▁demi	-2348
▁bantuan	-2349
jo	-2350
▁du	-2351
▁pembuatan	-2352
ital	-2353
▁sambil	-2354
▁pengel	-2355
▁memakai	-2356
▁tadi	-2357
let	-2358
arapkan	-2359
▁buruk	-2360
▁memenuhi	-2361
▁dianggap	-2362
▁terkenal	-2363
▁penyebab	-2364
▁prop	-2365
ingkatan	-2366
▁net	-2367
▁khususnya	-2368
▁api	-2369
po	-2370
▁meminta	-2371
edit	-2372
▁walaupun	-2373
▁menu	-2374
iks	-2375
▁mon	-2376
▁bangunan	-2377
▁2010	-2378
▁berusaha	-2379
▁pay	-2380
▁pendek	-2381
▁hi	-2382
he	-2383
▁download	-2384
ampaikan	-2385
▁kebij	-2386
▁katanya	-2387
▁operasi	-2388
ce	-2389
asinya	-2390
ilih	-2391
ukur	-2392
▁suraba	-2393
ebook	-2394
▁name	-2395
gabung	-2396
▁ca	-2397
▁tumbuh	-2398
▁tiap	-2399
▁lahir	-2400
▁tokoh	-2401
▁terh	-2402
▁om	-2403
auan	-2404
▁ditemukan	-2405
▁surabaya	-2406
ampilkan	-2407
ibatkan	-2408
▁lel	-2409
tra	-2410
atus	-2411
▁menentukan	-2412
▁isi	-2413
▁menjadikan	-2414
ilangan	-2415
udul	-2416
▁nak	-2417
zi	-2418
ambahkan	-2419
▁saling	-2420
▁hand	-2421
▁af	-2422
daft	-2423
▁dilihat	-2424
▁cp	-2425
wak	-2426
▁menyatakan	-2427
utup	-2428
▁balik	-2429
▁nabi	-2430
▁top	-2431
▁sebaiknya	-2432
▁pajak	-2433
▁berc	-2434
▁out	-2435
▁gue	-2436
▁partai	-2437
kannya	-2438
ment	-2439
▁bot	-2440
▁ja	-2441
▁hitam	-2442
▁vir	-2443
bangan	-2444
▁memperoleh	-2445
▁apr	-2446
▁usern	-2447
qu	-2448
▁halaman	-2449
▁username	-2450
▁temb	-2451
ainya	-2452
sp	-2453
▁aya	-2454
ubungi	-2455
▁iya	-2456
▁mit	-2457
▁maaf	-2458
▁ahli	-2459
▁agustus	-2460
hl	-2461
▁sebanyak	-2462
utar	-2463
▁et	-2464
▁ulang	-2465
enter	-2466
▁kemenangan	-2467
ukaan	-2468
▁nd	-2469
gerak	-2470
sur	-2471
▁versi	-2472
▁saud	-2473
▁tambahan	-2474
▁anti	-2475
▁benda	-2476
▁keputusan	-2477
▁pelaksana	-2478
▁menikmati	-2479
▁kapal	-2480
▁perbeda	-2481
▁komunikasi	-2482
▁del	-2483
▁standar	-2484
ambat	-2485
▁.,	-2486
▁resep	-2487
▁menjelaskan	-2488
imu	-2489
▁sma	-2490
ark	-2491
do	-2492
▁mengatasi	-2493
olak	-2494
▁jiwa	-2495
emuan	-2496
aksud	-2497
▁penduduk	-2498
tulis	-2499
▁vi	-2500
▁studi	-2501
▁kanker	-2502
▁yes	-2503
▁kira	-2504
▁mengandung	-2505
▁daun	-2506
erasi	-2507
▁udah	-2508
▁tog	-2509
▁takut	-2510
awatan	-2511
ert	-2512
onsumsi	-2513
▁laz	-2514
▁mang	-2515
▁peraturan	-2516
urna	-2517
isten	-2518
▁tekan	-2519
▁may	-2520
▁temp	-2521
▁bersi	-2522
ganya	-2523
▁istri	-2524
▁internasional	-2525
▁sekaligus	-2526
▁dibawah	-2527
▁mengin	-2528
▁nyaéta	-2529
▁perang	-2530
▁juni	-2531
▁rup	-2532
▁smartphone	-2533
▁duk	-2534
▁baju	-2535
▁milik	-2536
egah	-2537
▁saj	-2538
▁kapan	-2539
▁dipakai	-2540
▁kp	-2541
▁lib	-2542
unci	-2543
▁gam	-2544
▁bernama	-2545
istrik	-2546
usun	-2547
▁mari	-2548
▁con	-2549
orong	-2550
▁terasa	-2551
engaruhi	-2552
▁teh	-2553
▁penyel	-2554
▁oh	-2555
astikan	-2556
▁sebagaimana	-2557
rip	-2558
▁hid	-2559
ish	-2560
▁spes	-2561
▁40	-2562
form	-2563
tern	-2564
uktur	-2565
urus	-2566
▁gejala	-2567
▁restoran	-2568
▁mengaku	-2569
tal	-2570
▁berpikir	-2571
▁dl	-2572
▁perc	-2573
▁tindakan	-2574
eter	-2575
▁raya	-2576
▁yakin	-2577
▁ast	-2578
▁kim	-2579
▁file	-2580
▁pasal	-2581
▁by	-2582
ka	-2583
▁namanya	-2584
ome	-2585
▁dijual	-2586
▁memahami	-2587
▁kebijakan	-2588
ebr	-2589
▁herbal	-2590
▁unik	-2591
▁yog	-2592
▁pakai	-2593
za	-2594
▁dimil	-2595
▁berkata	-2596
epatan	-2597
ee	-2598
▁listrik	-2599
▁dewasa	-2600
▁total	-2601
ass	-2602
abr	-2603
obatan	-2604
alisasi	-2605
alia	-2606
▁pelanggan	-2607
▁fisik	-2608
▁ingat	-2609
inj	-2610
baikan	-2611
una	-2612
▁jl	-2613
▁jum	-2614
ps	-2615
indari	-2616
▁sir	-2617
▁upaya	-2618
▁téh	-2619
▁pant	-2620
▁diperlukan	-2621
▁pasi	-2622
▁email	-2623
▁bilang	-2624
▁2009	-2625
▁bandar	-2626
opa	-2627
▁kendaraan	-2628
▁bertemu	-2629
▁konsumen	-2630
▁perhat	-2631
▁peri	-2632
▁market	-2633
ows	-2634
▁berapa	-2635
▁pengembangan	-2636
▁tes	-2637
▁sarta	-2638
▁mempr	-2639
▁korban	-2640
antinya	-2641
▁alamat	-2642
▁kandungan	-2643
▁nal	-2644
▁positif	-2645
▁perhatian	-2646
▁pola	-2647
ajari	-2648
rat	-2649
iksi	-2650
uda	-2651
ace	-2652
▁karo	-2653
▁pengg	-2654
▁bapak	-2655
▁tipe	-2656
▁berikan	-2657
aih	-2658
▁28	-2659
enangkan	-2660
arakan	-2661
▁say	-2662
▁plan	-2663
▁rut	-2664
▁super	-2665
▁dinas	-2666
▁manajemen	-2667
▁der	-2668
▁suami	-2669
▁pertum	-2670
▁burung	-2671
▁perbedaan	-2672
▁berharap	-2673
uku	-2674
▁leg	-2675
▁27	-2676
te	-2677
▁bib	-2678
th	-2679
antikan	-2680
▁cap	-2681
ite	-2682
ulus	-2683
▁dpr	-2684
▁modern	-2685
fi	-2686
▁post	-2687
▁berlangsung	-2688
iko	-2689
▁ciri	-2690
adakan	-2691
▁togel	-2692
▁pangg	-2693
alian	-2694
▁pengobatan	-2695
▁pulang	-2696
▁=&	-2697
▁sip	-2698
uny	-2699
▁sempat	-2700
ien	-2701
istik	-2702
arin	-2703
▁beda	-2704
▁mac	-2705
▁muham	-2706
▁rom	-2707
▁imp	-2708
egang	-2709
andang	-2710
ock	-2711
▁hew	-2712
▁bergerak	-2713
▁juli	-2714
▁diam	-2715
▁tw	-2716
▁kesel	-2717
eja	-2718
yaran	-2719
▁nov	-2720
▁hat	-2721
▁uc	-2722
▁lar	-2723
tober	-2724
▁merek	-2725
▁kalah	-2726
▁rencana	-2727
jualan	-2728
etapkan	-2729
▁area	-2730
▁ne	-2731
▁prot	-2732
▁minum	-2733
ullah	-2734
▁taman	-2735
▁ho	-2736
adian	-2737
▁kode	-2738
▁sikap	-2739
enakan	-2740
▁proyek	-2741
▁energi	-2742
▁dat	-2743
▁tangga	-2744
▁sept	-2745
▁bb	-2746
▁semangat	-2747
der	-2748
her	-2749
▁merasakan	-2750
obat	-2751
▁menunggu	-2752
▁hend	-2753
▁pikiran	-2754
▁dibutuhkan	-2755
▁26	-2756
▁dimulai	-2757
▁maksud	-2758
▁kaca	-2759
okus	-2760
edar	-2761
▁potensi	-2762
iring	-2763
ebat	-2764
▁keamanan	-2765
▁smp	-2766
▁gerakan	-2767
ahas	-2768
▁pengunjung	-2769
▁pemerintahan	-2770
tugas	-2771
eck	-2772
▁jatuh	-2773
▁kin	-2774
▁bertanya	-2775
▁pac	-2776
▁berlaku	-2777
▁mei	-2778
ahari	-2779
▁laporan	-2780
top	-2781
▁titik	-2782
▁sungguh	-2783
▁pintu	-2784
▁wakil	-2785
▁tahap	-2786
alat	-2787
▁efektif	-2788
▁unsur	-2789
▁semb	-2790
▁cek	-2791
▁pec	-2792
▁minim	-2793
▁syar	-2794
▁lang	-2795
▁peluang	-2796
▁strategi	-2797
▁sampe	-2798
▁lokal	-2799
▁jab	-2800
▁terbesar	-2801
erang	-2802
itung	-2803
jid	-2804
▁sb	-2805
▁pakaian	-2806
inginkan	-2807
▁tv	-2808
▁bp	-2809
▁emas	-2810
▁jok	-2811
▁persen	-2812
impan	-2813
▁non	-2814
▁september	-2815
▁dijadikan	-2816
▁perp	-2817
▁bukti	-2818
engkapi	-2819
▁matahari	-2820
▁mengak	-2821
▁ruangan	-2822
▁cab	-2823
cing	-2824
▁pertumbuhan	-2825
ware	-2826
angkap	-2827
▁pd	-2828
ham	-2829
ff	-2830
▁pembayaran	-2831
▁bergabung	-2832
▁ara	-2833
▁hewan	-2834
▁dimaksud	-2835
urangan	-2836
▁aturan	-2837
▁kaum	-2838
▁tamu	-2839
▁sta	-2840
▁tina	-2841
▁lam	-2842
▁daging	-2843
ék	-2844
▁antar	-2845
▁daripada	-2846
▁istilah	-2847
▁jalur	-2848
▁sunga	-2849
▁profesional	-2850
ikin	-2851
yu	-2852
▁kisah	-2853
adinya	-2854
▁pp	-2855
ge	-2856
▁tampak	-2857
impi	-2858
▁maret	-2859
▁kopi	-2860
ne	-2861
▁arti	-2862
▁diharapkan	-2863
isa	-2864
▁kum	-2865
yataan	-2866
atal	-2867
ektr	-2868
▁samping	-2869
bi	-2870
isip	-2871
▁analis	-2872
oo	-2873
▁meningkat	-2874
agia	-2875
▁pemimpin	-2876
esaikan	-2877
▁facebook	-2878
▁wat	-2879
▁hilang	-2880
ualitas	-2881
▁jawaban	-2882
ram	-2883
▁khas	-2884
ahat	-2885
▁mengenal	-2886
▁vari	-2887
ret	-2888
asilan	-2889
▁bonus	-2890
▁jadwal	-2891
▁mendengar	-2892
▁sas	-2893
awaran	-2894
▁por	-2895
▁kunci	-2896
éroid	-2897
alikan	-2898
▁sepanjang	-2899
ivid	-2900
apus	-2901
▁mengurangi	-2902
▁astéroid	-2903
▁prod	-2904
▁pelajaran	-2905
▁cm	-2906
▁distr	-2907
▁harapan	-2908
▁menciptakan	-2909
▁dikatakan	-2910
ema	-2911
▁sungai	-2912
▁didalam	-2913
▁meja	-2914
▁camp	-2915
isti	-2916
▁kre	-2917
▁all	-2918
ng	-2919
▁kot	-2920
▁justr	-2921
uji	-2922
▁dimiliki	-2923
inginan	-2924
ukai	-2925
▁yesus	-2926
▁justru	-2927
▁bos	-2928
sel	-2929
▁sud	-2930
▁perj	-2931
▁pohon	-2932
▁agak	-2933
uali	-2934
▁cpns	-2935
▁dilaksanakan	-2936
▁berdiri	-2937
▁kebanyakan	-2938
▁individ	-2939
pon	-2940
▁sepatu	-2941
ros	-2942
itis	-2943
epon	-2944
ny	-2945
▁urang	-2946
▁huj	-2947
▁",	-2948
▁enak	-2949
▁pur	-2950
▁terbuka	-2951
▁aceh	-2952
▁500	-2953
▁transaksi	-2954
daftaran	-2955
ilangkan	-2956
▁bersifat	-2957
▁wont	-2958
▁sehar	-2959
ftar	-2960
▁oktober	-2961
▁wib	-2962
▁kena	-2963
uwih	-2964
▁dap	-2965
▁fre	-2966
iksa	-2967
▁asing	-2968
▁nantinya	-2969
oduksi	-2970
▁layak	-2971
▁menambah	-2972
▁meninggalkan	-2973
indah	-2974
▁gamp	-2975
yakarta	-2976
▁menteri	-2977
▁mengembangkan	-2978
anggu	-2979
▁zaman	-2980
ungkinkan	-2981
▁sap	-2982
▁kari	-2983
▁bintang	-2984
▁peran	-2985
▁mic	-2986
▁gadis	-2987
▁lazada	-2988
iling	-2989
▁pendaftaran	-2990
▁tampil	-2991
▁kerj	-2992
daftar	-2993
mb	-2994
anjutkan	-2995
▁berhubungan	-2996
▁seharusnya	-2997
▁menawarkan	-2998
elasan	-2999
▁sec	-3000
50	-3001
▁sepak	-3002
▁rasul	-3003
▁perawatan	-3004
▁populer	-3005
tas	-3006
utuskan	-3007
▁off	-3008
▁menimb	-3009
▁tengg	-3010
▁utawa	-3011
▁sahabat	-3012
▁umat	-3013
ahu	-3014
aksa	-3015
▁29	-3016
▁jantung	-3017
▁minangka	-3018
▁jel	-3019
▁pemilik	-3020
▁terletak	-3021
bern	-3022
▁disebabkan	-3023
▁berkualitas	-3024
▁yen	-3025
ten	-3026
ukti	-3027
ade	-3028
▁persi	-3029
▁mahal	-3030
▁memulai	-3031
ement	-3032
ukkan	-3033
▁tergantung	-3034
▁serv	-3035
▁bup	-3036
▁seper	-3037
▁berbicara	-3038
▁berhenti	-3039
▁tuk	-3040
▁nyata	-3041
▁panc	-3042
▁april	-3043
▁garis	-3044
▁kejadian	-3045
▁kudu	-3046
▁kelebihan	-3047
▁alb	-3048
▁menurunkan	-3049
engkapnya	-3050
ane	-3051
▁umur	-3052
▁ip	-3053
▁kehilangan	-3054
▁elektr	-3055
▁direk	-3056
▁tradisional	-3057
ene	-3058
▁197	-3059
▁melaksanakan	-3060
uluh	-3061
▁kalangan	-3062
▁eropa	-3063
asis	-3064
ograf	-3065
▁solusi	-3066
urat	-3067
▁peningkatan	-3068
ediksi	-3069
▁karyawan	-3070
▁serikat	-3071
▁minta	-3072
▁penderita	-3073
isk	-3074
▁nasi	-3075
▁pastinya	-3076
▁investasi	-3077
▁dipun	-3078
▁red	-3079
oritas	-3080
▁kesalahan	-3081
▁dikel	-3082
▁fir	-3083
▁liga	-3084
▁pelaksanaan	-3085
▁objek	-3086
▁kawasan	-3087
ton	-3088
▁makin	-3089
▁nih	-3090
asang	-3091
▁hamil	-3092
▁diberi	-3093
▁hadi	-3094
abil	-3095
▁menjalankan	-3096
▁publik	-3097
ower	-3098
▁asia	-3099
▁jarak	-3100
▁tanya	-3101
▁gubern	-3102
▁bod	-3103
▁penjualan	-3104
▁bupati	-3105
▁hiji	-3106
▁hon	-3107
impinan	-3108
ium	-3109
onsel	-3110
▁gubernur	-3111
▁maksimal	-3112
▁masjid	-3113
amping	-3114
etail	-3115
entuan	-3116
▁gal	-3117
▁latihan	-3118
▁jarang	-3119
▁pengerti	-3120
▁sebagainya	-3121
▁hutan	-3122
waj	-3123
aken	-3124
anian	-3125
ampung	-3126
▁zat	-3127
▁berikutnya	-3128
▁menjual	-3129
▁heh	-3130
oper	-3131
amaan	-3132
▁pertemuan	-3133
▁tata	-3134
▁didapat	-3135
▁seng	-3136
▁hujan	-3137
▁kapas	-3138
▁jo	-3139
▁mandi	-3140
▁suku	-3141
▁saudara	-3142
asana	-3143
▁layar	-3144
unggal	-3145
dul	-3146
▁normal	-3147
▁pengaruh	-3148
ayang	-3149
▁pernik	-3150
▁??	-3151
▁soft	-3152
▁yogyakarta	-3153
▁menambahkan	-3154
bul	-3155
▁mengingat	-3156
▁pemilihan	-3157
▁malang	-3158
kir	-3159
▁menyenangkan	-3160
▁tang	-3161
etan	-3162
▁31	-3163
yal	-3164
▁inginkan	-3165
▁teb	-3166
▁ponsel	-3167
osit	-3168
▁term	-3169
car	-3170
adilan	-3171
èh	-3172
▁dong	-3173
▁2008	-3174
▁biar	-3175
▁tant	-3176
▁kore	-3177
▁konf	-3178
▁mengubah	-3179
▁banyaknya	-3180
ayani	-3181
▁syarat	-3182
zin	-3183
▁mengeluarkan	-3184
insip	-3185
▁dur	-3186
▁kabar	-3187
▁dukungan	-3188
▁beragam	-3189
▁gedung	-3190
ewek	-3191
▁sempurna	-3192
abel	-3193
▁pikir	-3194
unda	-3195
akar	-3196
ilaku	-3197
▁gangg	-3198
onya	-3199
▁buka	-3200
▁memungkinkan	-3201
▁rasanya	-3202
▁selengkapnya	-3203
▁siang	-3204
▁bing	-3205
▁eng	-3206
èk	-3207
▁hijau	-3208
ipta	-3209
aji	-3210
▁asam	-3211
▁habis	-3212
omend	-3213
▁perg	-3214
▁lant	-3215
▁http	-3216
oid	-3217
▁cel	-3218
▁teori	-3219
▁perasaan	-3220
▁os	-3221
▁kereta	-3222
▁pengertian	-3223
yum	-3224
▁sumat	-3225
▁mengirim	-3226
▁polisi	-3227
▁,,	-3228
▁putri	-3229
▁kanan	-3230
▁awalnya	-3231
▁belanda	-3232
▁desember	-3233
▁leb	-3234
▁menimbulkan	-3235
▁susah	-3236
▁uga	-3237
▁og	-3238
▁kacam	-3239
▁otak	-3240
▁kerus	-3241
ner	-3242
▁ambil	-3243
▁mencegah	-3244
▁melawan	-3245
▁rat	-3246
▁komunitas	-3247
▁pabr	-3248
warna	-3249
▁kredit	-3250
▁diantaranya	-3251
▁disel	-3252
▁prinsip	-3253
▁pasien	-3254
▁membentuk	-3255
▁ww	-3256
▁indoné	-3257
▁deh	-3258
▁kamera	-3259
▁kuliah	-3260
▁bekas	-3261
▁luc	-3262
awatir	-3263
iji	-3264
▁lahan	-3265
▁rob	-3266
okan	-3267
▁sesungguh	-3268
▁spesifikasi	-3269
kw	-3270
▁memanfaatkan	-3271
▁guna	-3272
uksi	-3273
erd	-3274
▁au	-3275
sh	-3276
▁pernikahan	-3277
▁cas	-3278
▁wisat	-3279
▁lu	-3280
▁ep	-3281
▁indonésia	-3282
irikan	-3283
▁sesungguhnya	-3284
▁diterima	-3285
ork	-3286
▁arab	-3287
▁gangguan	-3288
▁diambil	-3289
▁remaja	-3290
▁disi	-3291
▁nalika	-3292
idik	-3293
▁gas	-3294
▁dad	-3295
▁:/	-3296
▁teks	-3297
▁abad	-3298
▁radi	-3299
▁menikah	-3300
▁komentar	-3301
▁keduanya	-3302
va	-3303
▁berka	-3304
▁catatan	-3305
▁meraih	-3306
▁dll	-3307
ular	-3308
▁anggaran	-3309
iar	-3310
▁hasilnya	-3311
▁geus	-3312
▁not	-3313
▁spesies	-3314
▁196	-3315
titu	-3316
▁kecuali	-3317
▁mengerti	-3318
▁individu	-3319
▁cor	-3320
▁lip	-3321
tifikasi	-3322
▁sand	-3323
▁wi	-3324
▁nanging	-3325
▁januari	-3326
▁berbagi	-3327
▁susu	-3328
pe	-3329
▁kanthi	-3330
▁.[	-3331
▁periode	-3332
▁judul	-3333
▁berkaitan	-3334
▁tunggu	-3335
▁keinginan	-3336
▁with	-3337
omba	-3338
intah	-3339
▁generasi	-3340
▁194	-3341
▁usah	-3342
aring	-3343
ancis	-3344
▁mor	-3345
▁tari	-3346
▁minuman	-3347
sikan	-3348
▁berwarna	-3349
▁60	-3350
▁://	-3351
▁perut	-3352
urah	-3353
▁abu	-3354
▁mom	-3355
uruan	-3356
▁kemat	-3357
▁tampilan	-3358
▁saking	-3359
akses	-3360
▁kepad	-3361
▁ketah	-3362
▁sms	-3363
ayakan	-3364
▁roh	-3365
▁khawatir	-3366
▁lapangan	-3367
▁stasi	-3368
▁02	-3369
▁berfungsi	-3370
...	-3371
▁sebelah	-3372
▁gigi	-3373
▁tahan	-3374
erjakan	-3375
▁meter	-3376
▁bangk	-3377
▁peristi	-3378
▁mut	-3379
view	-3380
▁menjawab	-3381
▁menghadapi	-3382
▁fo	-3383
▁korea	-3384
▁suh	-3385
▁wisatawan	-3386
utr	-3387
ein	-3388
▁kitab	-3389
▁kecepatan	-3390
▁album	-3391
▁kirim	-3392
▁memutuskan	-3393
▁hy	-3394
▁tra	-3395
▁www	-3396
osa	-3397
▁penjelasan	-3398
ick	-3399
istrasi	-3400
▁tni	-3401
▁sant	-3402
▁peristiwa	-3403
▁aspek	-3404
▁kering	-3405
▁mm	-3406
▁batas	-3407
▁menghilangkan	-3408
uskan	-3409
entingan	-3410
▁check	-3411
▁ujian	-3412
▁melip	-3413
▁gereja	-3414
▁dek	-3415
▁lantai	-3416
lat	-3417
tag	-3418
▁lawan	-3419
▁tertar	-3420
▁ringan	-3421
ost	-3422
▁sya	-3423
indak	-3424
atat	-3425
▁dikar	-3426
uaikan	-3427
unggulan	-3428
omatis	-3429
inding	-3430
tual	-3431
▁situasi	-3432
▁pasang	-3433
▁sarana	-3434
▁vit	-3435
idah	-3436
▁laga	-3437
esanan	-3438
▁ayo	-3439
▁32	-3440
▁permas	-3441
▁kimia	-3442
▁kursi	-3443
▁singkat	-3444
▁manis	-3445
▁fi	-3446
▁kerusakan	-3447
urang	-3448
▁dp	-3449
▁bikin	-3450
▁mung	-3451
wis	-3452
▁gor	-3453
▁ujung	-3454
▁tekanan	-3455
▁sebal	-3456
▁gw	-3457
▁pokok	-3458
▁kelamin	-3459
▁play	-3460
land	-3461
ral	-3462
itakan	-3463
▁membayar	-3464
▁tanggung	-3465
▁tertarik	-3466
osok	-3467
▁mohon	-3468
▁bog	-3469
bar	-3470
oma	-3471
▁samb	-3472
▁telepon	-3473
▁muhammad	-3474
▁medan	-3475
tivasi	-3476
▁poin	-3477
▁dalamnya	-3478
elanja	-3479
▁infeksi	-3480
▁pastikan	-3481
▁aneh	-3482
▁tat	-3483
▁terbukti	-3484
▁jaman	-3485
▁mengatur	-3486
▁anaknya	-3487
▁mempengaruhi	-3488
▁memainkan	-3489
▁laptop	-3490
▁virus	-3491
▁mempert	-3492
guna	-3493
▁klub	-3494
▁putra	-3495
baiki	-3496
▁ml	-3497
ex	-3498
ary	-3499
▁hadiah	-3500
▁real	-3501
tujuan	-3502
▁sunda	-3503
edakan	-3504
▁beliau	-3505
▁target	-3506
akaan	-3507
▁gampang	-3508
▁nag	-3509
▁terjadinya	-3510
▁november	-3511
onen	-3512
▁sag	-3513
intas	-3514
▁wind	-3515
▁naf	-3516
▁memastikan	-3517
ect	-3518
▁kekurangan	-3519
▁detail	-3520
▁saran	-3521
▁keper	-3522
ajaan	-3523
▁engk	-3524
▁dingin	-3525
▁jag	-3526
▁struktur	-3527
▁das	-3528
ys	-3529
obati	-3530
▁menutup	-3531
wajib	-3532
elajari	-3533
angani	-3534
angkau	-3535
▁kematian	-3536
umpulan	-3537
▁peral	-3538
▁glob	-3539
▁sebaliknya	-3540
▁pid	-3541
▁prim	-3542
▁vol	-3543
▁batang	-3544
▁fokus	-3545
uci	-3546
▁bangun	-3547
ero	-3548
arat	-3549
▁!!	-3550
ling	-3551
▁psik	-3552
▁otomatis	-3553
▁gan	-3554
▁pemuda	-3555
▁padha	-3556
▁mirip	-3557
itor	-3558
irasi	-3559
we	-3560
use	-3561
▁gagal	-3562
▁pelaku	-3563
▁mulut	-3564
▁perh	-3565
orit	-3566
artemen	-3567
itasi	-3568
▁kris	-3569
bitkan	-3570
▁tenang	-3571
▁dikirim	-3572
▁digital	-3573
▁terbuat	-3574
urusan	-3575
▁nus	-3576
▁menyelesaikan	-3577
▁ten	-3578
▁mp	-3579
▁memerlukan	-3580
mat	-3581
ening	-3582
ikiran	-3583
▁alih	-3584
▁35	-3585
▁terkadang	-3586
▁melayani	-3587
▁bukanlah	-3588
▁juara	-3589
ét	-3590
▁caranya	-3591
ungkap	-3592
▁01	-3593
atih	-3594
▁aksi	-3595
dayaan	-3596
▁read	-3597
▁end	-3598
tutup	-3599
▁sadar	-3600
▁pekan	-3601
empatkan	-3602
▁bertahan	-3603
▁amat	-3604
▁kapasitas	-3605
ajukan	-3606
▁bed	-3607
▁belanja	-3608
▁tema	-3609
ansi	-3610
▁rutin	-3611
▁mandiri	-3612
▁sobat	-3613
▁rad	-3614
▁gus	-3615
ayaan	-3616
▁sepeda	-3617
▁berakhir	-3618
entang	-3619
▁kinerja	-3620
▁oke	-3621
▁pari	-3622
▁penis	-3623
uktikan	-3624
▁pag	-3625
por	-3626
▁perilaku	-3627
▁melew	-3628
▁serangan	-3629
isiko	-3630
▁membahas	-3631
▁jerman	-3632
▁grup	-3633
erv	-3634
▁mantan	-3635
▁80	-3636
▁tambah	-3637
▁stasiun	-3638
▁pemesanan	-3639
▁diperoleh	-3640
▁komponen	-3641
▁minimal	-3642
▁saham	-3643
▁black	-3644
▁dihad	-3645
▁jangka	-3646
▁semarang	-3647
▁serius	-3648
▁atawa	-3649
anji	-3650
buhkan	-3651
its	-3652
▁pelatihan	-3653
▁melainkan	-3654
▁pc	-3655
▁dampak	-3656
▁2007	-3657
▁eh	-3658
▁kerajaan	-3659
▁kompl	-3660
▁jari	-3661
imak	-3662
▁sebut	-3663
▁altern	-3664
son	-3665
▁telur	-3666
▁kepentingan	-3667
▁miliki	-3668
indungi	-3669
▁lemak	-3670
▁dal	-3671
▁marang	-3672
▁perbuatan	-3673
▁pej	-3674
▁ketentuan	-3675
okok	-3676
▁optim	-3677
▁kag	-3678
ron	-3679
▁salam	-3680
tah	-3681
▁berisi	-3682
▁maju	-3683
epi	-3684
▁pengirim	-3685
jah	-3686
▁berani	-3687
▁45	-3688
▁pengaw	-3689
hah	-3690
▁ketahui	-3691
▁setid	-3692
▁cem	-3693
▁suasana	-3694
▁kebi	-3695
▁kup	-3696
▁luka	-3697
app	-3698
▁pertanian	-3699
▁dé	-3700
▁punc	-3701
▁adapun	-3702
▁permasalahan	-3703
agangan	-3704
put	-3705
▁status	-3706
ungkapkan	-3707
▁def	-3708
▁tuan	-3709
▁febr	-3710
▁ris	-3711
akeun	-3712
▁menyampaikan	-3713
▁bicara	-3714
▁alk	-3715
▁syari	-3716
▁mr	-3717
▁kana	-3718
▁dam	-3719
▁piala	-3720
▁berper	-3721
▁rupiah	-3722
▁cac	-3723
▁36	-3724
▁ujar	-3725
entasi	-3726
▁fakta	-3727
asama	-3728
▁rusak	-3729
ight	-3730
▁ditulis	-3731
▁berguna	-3732
▁pegaw	-3733
rol	-3734
▁terkena	-3735
ie	-3736
uat	-3737
adem	-3738
▁peralatan	-3739
▁mengunjungi	-3740
▁bingung	-3741
▁kesul	-3742
ahun	-3743
anggih	-3744
ran	-3745
▁bogor	-3746
▁huru	-3747
▁refer	-3748
oris	-3749
▁2000	-3750
▁kiri	-3751
▁staf	-3752
oker	-3753
▁pabrik	-3754
▁entah	-3755
asnya	-3756
▁membuatnya	-3757
▁terang	-3758
intai	-3759
▁hahah	-3760
jur	-3761
uga	-3762
▁dilengkapi	-3763
▁setidaknya	-3764
▁kacamatan	-3765
▁gem	-3766
of	-3767
▁meliputi	-3768
▁agung	-3769
▁pm	-3770
▁liburan	-3771
elih	-3772
▁betul	-3773
▁bakteri	-3774
▁kemarin	-3775
▁perdagangan	-3776
untut	-3777
▁terbatas	-3778
iksaan	-3779
▁trading	-3780
▁val	-3781
▁mik	-3782
▁murid	-3783
▁pis	-3784
▁cita	-3785
eum	-3786
elar	-3787
awar	-3788
▁melakukannya	-3789
▁berbelanja	-3790
alog	-3791
▁menyad	-3792
osis	-3793
ren	-3794
▁huruf	-3795
oda	-3796
amkan	-3797
indahan	-3798
▁jog	-3799
▁software	-3800
amakan	-3801
▁dikarenakan	-3802
uf	-3803
▁timbul	-3804
▁sepertinya	-3805
olusi	-3806
▁pangan	-3807
lak	-3808
▁lampu	-3809
▁sampeyan	-3810
▁kesulitan	-3811
▁dinding	-3812
▁dipr	-3813
uasa	-3814
▁angin	-3815
isipasi	-3816
uransi	-3817
▁prediksi	-3818
▁kenal	-3819
▁nan	-3820
▁prem	-3821
▁mimpi	-3822
orkan	-3823
ull	-3824
date	-3825
jata	-3826
▁via	-3827
▁deposit	-3828
ental	-3829
alahkan	-3830
▁penilai	-3831
▁saluran	-3832
esuaikan	-3833
ikal	-3834
▁tp	-3835
enya	-3836
▁kebu	-3837
▁distrib	-3838
▁gula	-3839
ras	-3840
▁tomb	-3841
eni	-3842
▁dibangun	-3843
▁pandangan	-3844
▁ros	-3845
▁kalimat	-3846
▁pk	-3847
▁mun	-3848
▁kertas	-3849
▁permukaan	-3850
intaan	-3851
▁mencer	-3852
emahan	-3853
etul	-3854
▁sangg	-3855
kin	-3856
sihkan	-3857
▁tulang	-3858
egan	-3859
▁hebat	-3860
▁cewek	-3861
▁kebiasaan	-3862
▁doa	-3863
▁kain	-3864
▁mant	-3865
▁ibadah	-3866
▁dini	-3867
▁pegawai	-3868
▁peg	-3869
unyi	-3870
▁suci	-3871
▁detik	-3872
▁keterangan	-3873
▁mendatang	-3874
▁col	-3875
nas	-3876
umi	-3877
▁menampilkan	-3878
▁pemand	-3879
elan	-3880
▁membunuh	-3881
▁wor	-3882
▁fit	-3883
▁ye	-3884
▁petugas	-3885
▁kue	-3886
▁review	-3887
upan	-3888
▁fav	-3889
day	-3890
▁sampah	-3891
ebu	-3892
▁penampilan	-3893
▁cabang	-3894
eral	-3895
argaan	-3896
▁memperhatikan	-3897
▁asi	-3898
enaran	-3899
▁but	-3900
aransi	-3901
▁city	-3902
uasai	-3903
ukuran	-3904
▁keren	-3905
▁kn	-3906
ahanan	-3907
▁lub	-3908
onik	-3909
▁cahaya	-3910
▁konsumsi	-3911
▁pemeriksaan	-3912
▁alternatif	-3913
umpang	-3914
illah	-3915
▁laj	-3916
▁wonten	-3917
▁ditambah	-3918
wisata	-3919
▁comp	-3920
ach	-3921
go	-3922
▁sok	-3923
ahankan	-3924
▁temukan	-3925
▁gua	-3926
▁wh	-3927
▁otot	-3928
▁unt	-3929
▁menemp	-3930
▁domino	-3931
▁kawan	-3932
▁tri	-3933
▁asuransi	-3934
ich	-3935
▁setengah	-3936
jaya	-3937
▁republik	-3938
ambang	-3939
akkan	-3940
iner	-3941
êm	-3942
▁bakar	-3943
sb	-3944
▁sektor	-3945
▁aliran	-3946
▁pembelian	-3947
▁katakan	-3948
▁.”	-3949
▁berbentuk	-3950
▁analisis	-3951
▁pengiriman	-3952
▁menyebutkan	-3953
▁rt	-3954
▁dosa	-3955
▁lemah	-3956
▁bit	-3957
▁seksual	-3958
▁penghargaan	-3959
▁plat	-3960
▁we	-3961
▁rapat	-3962
▁sens	-3963
onis	-3964
fikasi	-3965
▁dokumen	-3966
udang	-3967
▁cil	-3968
▁bahagia	-3969
ancang	-3970
▁mengisi	-3971
ahi	-3972
▁gelar	-3973
▁bertambah	-3974
▁komisi	-3975
▁dipilih	-3976
▁berusia	-3977
▁vitamin	-3978
▁harganya	-3979
▁33	-3980
▁cand	-3981
▁segi	-3982
▁berbasis	-3983
▁makna	-3984
▁windows	-3985
▁cok	-3986
▁bener	-3987
▁propinsi	-3988
▁engkau	-3989
ue	-3990
▁semacam	-3991
▁cender	-3992
▁kepercaya	-3993
antara	-3994
entikan	-3995
▁pip	-3996
▁travel	-3997
▁india	-3998
▁kampung	-3999
unjungan	-4000
ahaman	-4001
▁pemberian	-4002
▁jaya	-4003
▁jabatan	-4004
▁aut	-4005
▁penilaian	-4006
▁berbahaya	-4007
olis	-4008
owi	-4009
▁ketid	-4010
▁app	-4011
▁risiko	-4012
▁enam	-4013
▁raj	-4014
▁imam	-4015
olaan	-4016
ins	-4017
evisi	-4018
▁hel	-4019
▁kutil	-4020
krip	-4021
▁hendak	-4022
▁ragu	-4023
▁sekedar	-4024
▁pencarian	-4025
▁ulama	-4026
lus	-4027
▁penawaran	-4028
uhnya	-4029
▁kontak	-4030
▁kontrak	-4031
▁diantara	-4032
▁diskon	-4033
▁senin	-4034
sinya	-4035
▁mesti	-4036
▁jumat	-4037
▁pake	-4038
20	-4039
▁ass	-4040
▁puncak	-4041
▁miliar	-4042
▁mitra	-4043
▁austr	-4044
ografi	-4045
▁rangka	-4046
stem	-4047
tic	-4048
▁joh	-4049
▁melanjutkan	-4050
▁sign	-4051
▁pri	-4052
▁nur	-4053
▁mendorong	-4054
onan	-4055
▁peta	-4056
▁pint	-4057
udahkan	-4058
▁sams	-4059
▁mbak	-4060
▁cenderung	-4061
ank	-4062
truksi	-4063
elang	-4064
▁don	-4065
▁keur	-4066
▁az	-4067
▁jin	-4068
▁promosi	-4069
▁urusan	-4070
anto	-4071
itarnya	-4072
ance	-4073
▁rekan	-4074
xy	-4075
▁mengobati	-4076
▁sampun	-4077
▁muka	-4078
epan	-4079
▁kotor	-4080
▁duw	-4081
▁gitu	-4082
▁papan	-4083
▁bengk	-4084
▁payudara	-4085
atuan	-4086
aluasi	-4087
▁horm	-4088
▁pengan	-4089
▁honda	-4090
▁kil	-4091
▁tand	-4092
acara	-4093
une	-4094
ustom	-4095
ory	-4096
▁langit	-4097
▁menghindari	-4098
▁2006	-4099
▁klas	-4100
▁kepercayaan	-4101
▁golongan	-4102
▁hahaha	-4103
▁cak	-4104
engaruh	-4105
êr	-4106
ikul	-4107
▁ganti	-4108
▁tolong	-4109
▁level	-4110
▁bertanggung	-4111
▁ditetapkan	-4112
▁dki	-4113
cel	-4114
tian	-4115
▁kampus	-4116
▁dewan	-4117
▁demok	-4118
agang	-4119
▁pengelolaan	-4120
▁ident	-4121
▁kunjungan	-4122
▁pemak	-4123
rid	-4124
umpulkan	-4125
▁pasukan	-4126
▁korup	-4127
otong	-4128
▁memenangkan	-4129
▁pingg	-4130
▁penjual	-4131
uruhan	-4132
▁system	-4133
▁kaj	-4134
▁gab	-4135
ye	-4136
▁kg	-4137
obi	-4138
▁rahasia	-4139
▁negatif	-4140
nam	-4141
▁back	-4142
▁yuk	-4143
▁prestasi	-4144
▁melewati	-4145
▁emosi	-4146
▁baiknya	-4147
▁fas	-4148
▁perintah	-4149
▁puas	-4150
uhkan	-4151
inter	-4152
▁menyimpan	-4153
▁gb	-4154
ajuan	-4155
▁é	-4156
▁memasuki	-4157
▁februari	-4158
▁boc	-4159
▁bulu	-4160
▁tampilkan	-4161
▁instan	-4162
▁lepas	-4163
▁diet	-4164
iarkan	-4165
▁marah	-4166
upuk	-4167
▁sib	-4168
▁kebenaran	-4169
anggil	-4170
▁tumbuhan	-4171
▁singap	-4172
▁sor	-4173
alik	-4174
▁segar	-4175
hluk	-4176
be	-4177
▁bac	-4178
▁gro	-4179
▁lomba	-4180
▁rangk	-4181
▁quran	-4182
▁ngar	-4183
▁tuh	-4184
▁transport	-4185
arankan	-4186
▁pendapatan	-4187
▁pulsa	-4188
kom	-4189
oa	-4190
dr	-4191
▁makhluk	-4192
▁fore	-4193
▁persyar	-4194
▁menyadari	-4195
trol	-4196
▁kotak	-4197
unjukan	-4198
▁perum	-4199
omi	-4200
▁can	-4201
▁kir	-4202
▁my	-4203
wat	-4204
ekar	-4205
▁suhu	-4206
▁kolam	-4207
▁halus	-4208
▁kula	-4209
▁port	-4210
▁tol	-4211
itter	-4212
▁alias	-4213
epak	-4214
▁sop	-4215
▁adik	-4216
▁kepem	-4217
▁perju	-4218
ologis	-4219
urahan	-4220
▁aq	-4221
▁fin	-4222
▁70	-4223
akuan	-4224
umb	-4225
▁free	-4226
enggarakan	-4227
▁law	-4228
▁sejen	-4229
▁03	-4230
▁lucu	-4231
▁petani	-4232
▁wujud	-4233
▁sudut	-4234
▁ramah	-4235
▁puasa	-4236
▁rasulullah	-4237
▁seputar	-4238
▁ala	-4239
▁cre	-4240
▁bbm	-4241
▁pernyataan	-4242
▁pembaca	-4243
▁persyaratan	-4244
▁peduli	-4245
anyi	-4246
▁sore	-4247
▁éta	-4248
▁menengah	-4249
ational	-4250
▁menyus	-4251
▁rupa	-4252
▁ajaran	-4253
▁hind	-4254
▁dibawa	-4255
mer	-4256
endiri	-4257
▁tag	-4258
▁power	-4259
undang	-4260
orasi	-4261
ingkan	-4262
▁pra	-4263
▁09	-4264
ambung	-4265
tinggi	-4266
▁,-	-4267
▁pemas	-4268
erai	-4269
ence	-4270
▁ditawarkan	-4271
▁televisi	-4272
▁memudahkan	-4273
▁ton	-4274
abiskan	-4275
▁artis	-4276
▁global	-4277
▁besi	-4278
▁ilmi	-4279
ubung	-4280
▁rev	-4281
▁lal	-4282
▁lun	-4283
teroid	-4284
eman	-4285
▁izin	-4286
▁300	-4287
▁smk	-4288
asta	-4289
▁keseluruhan	-4290
urunan	-4291
▁:)	-4292
cap	-4293
▁turut	-4294
▁cina	-4295
▁keg	-4296
▁bekasi	-4297
▁kah	-4298
▁tombol	-4299
▁ialah	-4300
arch	-4301
▁cairan	-4302
▁paham	-4303
▁wid	-4304
▁mempelajari	-4305
asiat	-4306
ikmat	-4307
▁tangk	-4308
▁permintaan	-4309
▁parah	-4310
▁akadem	-4311
▁setempat	-4312
▁07	-4313
▁dimainkan	-4314
▁wasir	-4315
▁produs	-4316
▁keunggulan	-4317
eku	-4318
▁home	-4319
▁pengen	-4320
ihatan	-4321
▁tun	-4322
▁beserta	-4323
ial	-4324
jol	-4325
▁halnya	-4326
▁sengaja	-4327
▁kreatif	-4328
ahter	-4329
umpul	-4330
▁pembah	-4331
▁menyerang	-4332
▁iii	-4333
dh	-4334
▁pic	-4335
▁menjalani	-4336
▁vag	-4337
▁jokowi	-4338
▁latar	-4339
wang	-4340
és	-4341
▁era	-4342
▁dum	-4343
▁didik	-4344
▁mengakibatkan	-4345
▁favorit	-4346
▁dasarnya	-4347
▁custom	-4348
▁mengadakan	-4349
▁contohnya	-4350
abet	-4351
▁div	-4352
▁kus	-4353
▁90	-4354
irian	-4355
▁sumatera	-4356
▁kristen	-4357
▁fakult	-4358
nah	-4359
▁ci	-4360
▁maha	-4361
▁jemb	-4362
masi	-4363
▁luk	-4364
▁inggih	-4365
anjian	-4366
éb	-4367
enterian	-4368
▁pasir	-4369
mp	-4370
▁batik	-4371
▁terbentuk	-4372
▁dimas	-4373
▁fam	-4374
▁nar	-4375
▁perjuangan	-4376
ech	-4377
▁transfer	-4378
▁biru	-4379
▁pejabat	-4380
▁pemahaman	-4381
emui	-4382
▁sia	-4383
▁bibir	-4384
▁lumayan	-4385
▁bh	-4386
▁sekitarnya	-4387
▁penurunan	-4388
▁kementerian	-4389
▁memperl	-4390
▁menganggap	-4391
▁menekan	-4392
alanya	-4393
▁gatal	-4394
▁sn	-4395
ombang	-4396
▁sapi	-4397
str	-4398
▁konten	-4399
▁fakultas	-4400
▁penerbangan	-4401
▁senjata	-4402
▁keberadaan	-4403
▁lebar	-4404
▁lulus	-4405
okasi	-4406
▁beban	-4407
▁hib	-4408
▁ilmiah	-4409
cana	-4410
▁plus	-4411
▁pengusaha	-4412
▁hangat	-4413
▁mangr	-4414
▁memperbaiki	-4415
▁padang	-4416
▁kewajib	-4417
itah	-4418
▁05	-4419
▁misi	-4420
▁2004	-4421
fir	-4422
▁sepen	-4423
▁administrasi	-4424
atasan	-4425
engarkan	-4426
__	-4427
▁lembut	-4428
▁kid	-4429
▁lab	-4430
▁mula	-4431
▁you	-4432
▁hai	-4433
siapkan	-4434
▁skor	-4435
tuju	-4436
▁2005	-4437
▁menolak	-4438
▁tir	-4439
▁drama	-4440
▁sisa	-4441
gr	-4442
▁anc	-4443
▁kucing	-4444
▁spe	-4445
ovasi	-4446
▁mengal	-4447
umkan	-4448
▁blogger	-4449
▁minimalis	-4450
▁militer	-4451
▁samsung	-4452
▁swt	-4453
astik	-4454
▁dibuka	-4455
▁menerapkan	-4456
▁ditentukan	-4457
▁seo	-4458
▁pimpinan	-4459
isor	-4460
▁nj	-4461
▁désa	-4462
▁penyelengg	-4463
▁meneg	-4464
aing	-4465
▁melindungi	-4466
▁bandara	-4467
▁trik	-4468
ler	-4469
▁kebudayaan	-4470
▁membuktikan	-4471
▁penghasilan	-4472
se	-4473
▁terjangkau	-4474
▁line	-4475
▁ungg	-4476
▁haha	-4477
gen	-4478
▁resiko	-4479
aa	-4480
▁mengej	-4481
▁garansi	-4482
▁forex	-4483
▁urut	-4484
▁adat	-4485
▁.....	-4486
▁,”	-4487
▁casino	-4488
▁seber	-4489
▁service	-4490
▁48	-4491
▁pendekatan	-4492
▁disana	-4493
▁simb	-4494
▁dol	-4495
▁graf	-4496
▁pinj	-4497
▁disediakan	-4498
▁dprd	-4499
▁dosen	-4500
adan	-4501
uhur	-4502
▁efisi	-4503
▁pindah	-4504
indungan	-4505
▁;/&	-4506
▁akunt	-4507
▁bertujuan	-4508
▁kayak	-4509
ings	-4510
▁update	-4511
nu	-4512
▁perhatikan	-4513
untungkan	-4514
▁magn	-4515
▁tutup	-4516
enan	-4517
▁anim	-4518
▁kekuasaan	-4519
▁kub	-4520
▁pemikiran	-4521
inga	-4522
ikirkan	-4523
▁menyukai	-4524
▁konv	-4525
awesi	-4526
amilan	-4527
▁mengungkapkan	-4528
▁dapur	-4529
ts	-4530
▁tersendiri	-4531
▁bawa	-4532
ogen	-4533
▁kalimantan	-4534
▁engg	-4535
pirasi	-4536
▁uu	-4537
oks	-4538
▁sch	-4539
▁undangan	-4540
▁kelapa	-4541
▁mengajak	-4542
▁penyedia	-4543
▁disebutkan	-4544
oman	-4545
ajarkan	-4546
▁ogé	-4547
▁pertim	-4548
▁kaos	-4549
éng	-4550
▁jurusan	-4551
▁china	-4552
▁berangkat	-4553
▁jas	-4554
▁transportasi	-4555
▁bro	-4556
▁sid	-4557
▁luwih	-4558
buang	-4559
▁gimana	-4560
▁perjanjian	-4561
▁kompetisi	-4562
▁bor	-4563
▁praktis	-4564
▁server	-4565
imakasih	-4566
▁liyan	-4567
▁lancar	-4568
▁tujuh	-4569
entuh	-4570
les	-4571
▁berkom	-4572
▁terlibat	-4573
▁pemandangan	-4574
mar	-4575
▁kuring	-4576
▁kala	-4577
eet	-4578
▁tut	-4579
▁silakan	-4580
▁kuning	-4581
hamdul	-4582
resi	-4583
timewa	-4584
▁pelatih	-4585
▁emp	-4586
▁hol	-4587
▁ty	-4588
▁--	-4589
otan	-4590
ld	-4591
▁inform	-4592
▁jerawat	-4593
▁relatif	-4594
▁malay	-4595
amatkan	-4596
▁dihasilkan	-4597
▁klien	-4598
▁dri	-4599
emar	-4600
ise	-4601
ingatkan	-4602
eut	-4603
▁disampaikan	-4604
▁panj	-4605
▁mengajar	-4606
▁sabtu	-4607
▁koleksi	-4608
▁trip	-4609
▁pendukung	-4610
▁sinar	-4611
din	-4612
▁sabar	-4613
▁key	-4614
▁vis	-4615
utkan	-4616
anjung	-4617
alih	-4618
▁harta	-4619
▁mengec	-4620
▁hadits	-4621
▁sabab	-4622
▁mengkonsumsi	-4623
▁diikuti	-4624
▁kamis	-4625
ajat	-4626
▁let	-4627
kuat	-4628
▁perso	-4629
▁twitter	-4630
▁hany	-4631
▁jend	-4632
▁membersihkan	-4633
▁asteroid	-4634
▁menghabiskan	-4635
kes	-4636
▁”.	-4637
engkapan	-4638
▁rekening	-4639
umur	-4640
▁korupsi	-4641
▁sewa	-4642
jar	-4643
▁tertinggi	-4644
ambarkan	-4645
▁dengar	-4646
▁bung	-4647
een	-4648
▁pedagang	-4649
▁forum	-4650
▁alhamdul	-4651
ining	-4652
▁motivasi	-4653
▁rusia	-4654
▁av	-4655
▁menak	-4656
uaran	-4657
alang	-4658
▁melah	-4659
▁berkunjung	-4660
▁hubungi	-4661
▁tantangan	-4662
▁mengganggu	-4663
itungan	-4664
▁34	-4665
▁perencana	-4666
▁cir	-4667
▁uji	-4668
▁rabu	-4669
so	-4670
epaskan	-4671
▁banjur	-4672
aktif	-4673
opy	-4674
▁perlindungan	-4675
▁persoalan	-4676
jan	-4677
▁masakan	-4678
▁sahiji	-4679
▁han	-4680
▁bri	-4681
▁untung	-4682
▁ketingg	-4683
▁more	-4684
▁kosong	-4685
▁lubang	-4686
▁rs	-4687
▁sri	-4688
▁radio	-4689
amah	-4690
▁deui	-4691
▁150	-4692
▁pangeran	-4693
▁bil	-4694
▁perguruan	-4695
▁solo	-4696
êp	-4697
▁det	-4698
▁perbaikan	-4699
▁pub	-4700
▁06	-4701
▁lintas	-4702
▁sr	-4703
▁malu	-4704
▁komb	-4705
▁pemenang	-4706
▁panduan	-4707
els	-4708
▁cit	-4709
alin	-4710
▁fen	-4711
▁seru	-4712
▁sayangnya	-4713
▁qur	-4714
▁ketur	-4715
▁hidupnya	-4716
▁04	-4717
▁mengus	-4718
▁cc	-4719
▁seringk	-4720
▁195	-4721
▁ujarnya	-4722
▁foll	-4723
▁fot	-4724
zz	-4725
de	-4726
▁38	-4727
ematika	-4728
arn	-4729
▁kompetensi	-4730
▁format	-4731
▁selasa	-4732
▁kara	-4733
titusi	-4734
▁menguasai	-4735
▁ampuh	-4736
▁pond	-4737
▁dikembangkan	-4738
osan	-4739
▁sekian	-4740
▁seringkali	-4741
▁wew	-4742
▁max	-4743
araf	-4744
▁kewajiban	-4745
▁sibuk	-4746
imaan	-4747
▁org	-4748
▁mangk	-4749
▁lho	-4750
oli	-4751
▁menguntungkan	-4752
utaan	-4753
▁sangatlah	-4754
▁merk	-4755
set	-4756
▁plastik	-4757
▁pon	-4758
▁kakak	-4759
▁akr	-4760
▁ub	-4761
▁iman	-4762
▁perkara	-4763
▁petunjuk	-4764
anyol	-4765
▁isra	-4766
inar	-4767
▁mempertahankan	-4768
edur	-4769
adu	-4770
word	-4771
juang	-4772
tip	-4773
das	-4774
▁tukang	-4775
▁99	-4776
▁lapisan	-4777
▁disert	-4778
▁bug	-4779
▁bub	-4780
▁iv	-4781
▁wakt	-4782
▁stat	-4783
▁referensi	-4784
▁tarif	-4785
imbang	-4786
ii	-4787
▁gusti	-4788
lin	-4789
hion	-4790
▁karen	-4791
▁shalat	-4792
▁material	-4793
place	-4794
▁nark	-4795
▁full	-4796
▁serupa	-4797
▁penyimp	-4798
▁malaysia	-4799
▁reaksi	-4800
irahat	-4801
▁hard	-4802
▁kuwi	-4803
▁pemasaran	-4804
amar	-4805
isahkan	-4806
▁lg	-4807
▁tunggal	-4808
▁harinya	-4809
sial	-4810
▁penerimaan	-4811
▁nyeri	-4812
▁ner	-4813
▁menyi	-4814
▁berkel	-4815
▁pembahasan	-4816
▁sosok	-4817
▁peringkat	-4818
▁swasta	-4819
ucapkan	-4820
embuhkan	-4821
▁tergolong	-4822
▁gaji	-4823
▁lol	-4824
▁kebers	-4825
▁ngr	-4826
▁37	-4827
▁memasang	-4828
▁dipercaya	-4829
▁mart	-4830
▁satuan	-4831
▁berlebihan	-4832
▁fe	-4833
▁koper	-4834
▁mewah	-4835
▁kis	-4836
▁menginginkan	-4837
▁tabel	-4838
▁jujur	-4839
▁tk	-4840
▁italia	-4841
▁melahirkan	-4842
▁arus	-4843
inisi	-4844
▁memakan	-4845
----	-4846
▁seiring	-4847
▁kehad	-4848
ehe	-4849
▁krim	-4850
▁pemilu	-4851
by	-4852
▁what	-4853
omendasikan	-4854
ean	-4855
▁ratu	-4856
▁kabel	-4857
▁keindahan	-4858
▁lin	-4859
iz	-4860
▁massa	-4861
▁ij	-4862
▁land	-4863
▁ungkap	-4864
▁stadi	-4865
atangan	-4866
▁angkatan	-4867
▁karna	-4868
▁kong	-4869
▁dén	-4870
▁papua	-4871
▁kadar	-4872
▁betapa	-4873
▁marketplace	-4874
otik	-4875
▁persiapan	-4876
▁ekstr	-4877
▁perencanaan	-4878
▁pesta	-4879
tik	-4880
▁heran	-4881
▁bayar	-4882
rop	-4883
▁flash	-4884
▁char	-4885
êt	-4886
▁bau	-4887
▁ren	-4888
▁properti	-4889
▁sari	-4890
▁kumpulan	-4891
▁diperhatikan	-4892
▁semen	-4893
inci	-4894
▁diinginkan	-4895
▁buatan	-4896
▁keterampilan	-4897
anye	-4898
irik	-4899
▁menghubungi	-4900
▁australia	-4901
▁point	-4902
ood	-4903
ambar	-4904
▁gelap	-4905
▁mendaftar	-4906
▁intel	-4907
utrisi	-4908
▁menilai	-4909
luan	-4910
▁menderita	-4911
▁terdekat	-4912
▁melibatkan	-4913
▁tb	-4914
▁pengend	-4915
yangkan	-4916
12	-4917
▁muk	-4918
ulah	-4919
ikulum	-4920
▁internal	-4921
▁pungk	-4922
tis	-4923
▁sastra	-4924
▁penasaran	-4925
▁ramai	-4926
ataan	-4927
▁minat	-4928
ies	-4929
▁pep	-4930
▁seleksi	-4931
▁kebaikan	-4932
aat	-4933
▁planet	-4934
udukan	-4935
▁far	-4936
▁tom	-4937
orial	-4938
▁jati	-4939
▁didukung	-4940
▁telkom	-4941
▁55	-4942
▁laba	-4943
ven	-4944
▁dewa	-4945
▁hanyalah	-4946
ulusan	-4947
▁diw	-4948
▁berpengaruh	-4949
▁mc	-4950
▁jaminan	-4951
ume	-4952
▁medis	-4953
▁babak	-4954
▁produsen	-4955
▁mendek	-4956
able	-4957
▁tangerang	-4958
▁isu	-4959
▁bob	-4960
▁kerjasama	-4961
▁kehamilan	-4962
▁ratusan	-4963
▁kurikulum	-4964
oss	-4965
ervasi	-4966
▁mekan	-4967
▁perform	-4968
kirakan	-4969
▁ngan	-4970
akaran	-4971
▁natur	-4972
▁menger	-4973
▁spanyol	-4974
elis	-4975
▁rac	-4976
▁kelah	-4977
▁hm	-4978
▁kemajuan	-4979
angkut	-4980
▁teknis	-4981
▁kasino	-4982
aporkan	-4983
umah	-4984
kar	-4985
▁panit	-4986
▁fat	-4987
▁tin	-4988
▁pass	-4989
▁tal	-4990
▁berperan	-4991
▁wajar	-4992
▁menurutnya	-4993
▁star	-4994
▁prosedur	-4995
owo	-4996
▁wkw	-4997
▁postingan	-4998
dai	-4999
▁;!	-5000
▁menetapkan	-5001
▁diny	-5002
▁pariwisata	-5003
▁jembatan	-5004
akup	-5005
▁haji	-5006
▁keny	-5007
▁matematika	-5008
▁blu	-5009
▁sport	-5010
▁39	-5011
▁menahan	-5012
▁brand	-5013
unikasi	-5014
▁tour	-5015
▁group	-5016
ical	-5017
▁mangrupa	-5018
olat	-5019
akake	-5020
▁mental	-5021
▁pemula	-5022
▁bencana	-5023
▁berbuat	-5024
obet	-5025
▁rec	-5026
▁novel	-5027
enalkan	-5028
ernya	-5029
▁lif	-5030
▁direktur	-5031
▁awak	-5032
▁upacara	-5033
tifikat	-5034
rib	-5035
▁mengangkat	-5036
enting	-5037
▁ketidak	-5038
▁tiyang	-5039
▁2003	-5040
▁jej	-5041
▁ret	-5042
▁sepenuhnya	-5043
▁stabil	-5044
▁jurn	-5045
itmen	-5046
▁suam	-5047
▁seolah	-5048
ike	-5049
▁games	-5050
▁day	-5051
▁sulawesi	-5052
▁pembeli	-5053
▁gram	-5054
umuman	-5055
▁vs	-5056
10	-5057
▁temen	-5058
▁tep	-5059
▁terbang	-5060
illa	-5061
▁len	-5062
adaran	-5063
gaan	-5064
hasilan	-5065
▁keker	-5066
▁penumpang	-5067
▁akal	-5068
isar	-5069
▁pb	-5070
udahan	-5071
▁terimakasih	-5072
▁pintar	-5073
press	-5074
▁madu	-5075
▁tarik	-5076
▁manag	-5077
▁ic	-5078
▁utk	-5079
▁bukit	-5080
▁inves	-5081
▁lampung	-5082
▁keperluan	-5083
▁ambe	-5084
idi	-5085
▁aset	-5086
utor	-5087
▁mobile	-5088
▁menonton	-5089
sus	-5090
ile	-5091
▁kabeh	-5092
▁didirikan	-5093
▁dimanfaatkan	-5094
▁motif	-5095
▁ribuan	-5096
enuhi	-5097
osting	-5098
▁final	-5099
▁tenggara	-5100
▁keturunan	-5101
▁menyiapkan	-5102
▁tepatnya	-5103
▁buang	-5104
▁fashion	-5105
▁beri	-5106
▁didapatkan	-5107
inkan	-5108
▁kesimp	-5109
▁alhamdulillah	-5110
▁88	-5111
▁protein	-5112
xt	-5113
▁dijalan	-5114
▁tubuhnya	-5115
▁test	-5116
▁berdua	-5117
ony	-5118
allah	-5119
▁word	-5120
▁sejauh	-5121
wakilan	-5122
▁konflik	-5123
▁dikeluarkan	-5124
▁budi	-5125
hu	-5126
▁over	-5127
▁biji	-5128
▁nen	-5129
ujudkan	-5130
ampi	-5131
▁rus	-5132
embalikan	-5133
▁potongan	-5134
▁ambeien	-5135
angkal	-5136
▁merusak	-5137
▁nonton	-5138
▁departemen	-5139
uaskan	-5140
arikan	-5141
▁world	-5142
▁evaluasi	-5143
▁pasaran	-5144
▁elektronik	-5145
▁hemat	-5146
▁karb	-5147
▁dibagi	-5148
▁time	-5149
angkutan	-5150
▁strategis	-5151
▁museum	-5152
êl	-5153
▁share	-5154
▁mengerjakan	-5155
▁ahmad	-5156
ty	-5157
▁ré	-5158
▁baterai	-5159
▁order	-5160
bah	-5161
▁surve	-5162
nc	-5163
▁lamun	-5164
▁has	-5165
adai	-5166
30	-5167
▁termurah	-5168
▁make	-5169
▁kenaikan	-5170
▁alum	-5171
uncurkan	-5172
▁wad	-5173
▁sami	-5174
▁kabupatén	-5175
▁canggih	-5176
▁jender	-5177
▁roda	-5178
▁pengadilan	-5179
▁diatur	-5180
▁diadakan	-5181
▁diterapkan	-5182
▁jil	-5183
▁hab	-5184
isnis	-5185
bola	-5186
▁memperk	-5187
▁sedih	-5188
▁emang	-5189
▁cur	-5190
▁perumahan	-5191
▁peneliti	-5192
igh	-5193
ibur	-5194
▁pinjaman	-5195
lian	-5196
▁yèn	-5197
▁istimewa	-5198
▁besok	-5199
▁memegang	-5200
▁cerdas	-5201
▁wali	-5202
▁mark	-5203
▁campuran	-5204
▁jogja	-5205
▁setia	-5206
jang	-5207
▁botol	-5208
zat	-5209
▁celana	-5210
▁respon	-5211
▁kawas	-5212
unjang	-5213
agan	-5214
▁hr	-5215
▁jack	-5216
▁pacar	-5217
▁%.	-5218
ebak	-5219
ugian	-5220
osisi	-5221
ekaan	-5222
▁teratur	-5223
▁visi	-5224
kn	-5225
▁sekret	-5226
▁kombinasi	-5227
▁kemudahan	-5228
▁mol	-5229
vari	-5230
▁kerap	-5231
▁fenom	-5232
ohan	-5233
▁hir	-5234
coin	-5235
▁baris	-5236
▁yaa	-5237
utang	-5238
▁waktunya	-5239
▁mengend	-5240
▁karang	-5241
arahan	-5242
▁menerus	-5243
uch	-5244
▁nutrisi	-5245
▁gila	-5246
▁gizi	-5247
▁inc	-5248
▁diabet	-5249
▁panitia	-5250
▁kesan	-5251
▁tindak	-5252
▁domain	-5253
▁akurat	-5254
▁puluhan	-5255
▁puluh	-5256
oke	-5257
▁kecantikan	-5258
▁jenderal	-5259
▁pembentukan	-5260
▁jamur	-5261
itual	-5262
▁niat	-5263
▁tentara	-5264
▁biarkan	-5265
▁book	-5266
eat	-5267
▁mund	-5268
▁binatang	-5269
▁las	-5270
odo	-5271
▁ane	-5272
▁ngal	-5273
▁sembuh	-5274
▁perwakilan	-5275
▁bid	-5276
▁simak	-5277
▁singapura	-5278
▁majalah	-5279
▁palsu	-5280
ulauan	-5281
▁karenanya	-5282
▁kuliner	-5283
adhan	-5284
ez	-5285
▁sipil	-5286
▁dak	-5287
▁kerugian	-5288
▁tanjung	-5289
▁pidana	-5290
▁hip	-5291
▁paru	-5292
▁mencakup	-5293
inf	-5294
▁ajang	-5295
▁memat	-5296
olahan	-5297
out	-5298
▁mini	-5299
▁kesadaran	-5300
▁aktifitas	-5301
ahatan	-5302
▁nusantara	-5303
▁event	-5304
afat	-5305
ica	-5306
▁gemp	-5307
adar	-5308
▁diskusi	-5309
▁leh	-5310
▁pengumuman	-5311
êd	-5312
▁urip	-5313
jikan	-5314
awal	-5315
▁sasaran	-5316
▁liat	-5317
▁sbobet	-5318
▁sekalipun	-5319
▁pir	-5320
▁get	-5321
▁kolom	-5322
▁kenyamanan	-5323
▁merawat	-5324
▁75	-5325
ancurkan	-5326
▁keempat	-5327
etulan	-5328
itanya	-5329
▁ce	-5330
sun	-5331
▁gambaran	-5332
▁united	-5333
▁identitas	-5334
▁signif	-5335
▁taj	-5336
▁slot	-5337
▁tidaklah	-5338
▁mempersiapkan	-5339
▁live	-5340
▁bend	-5341
sul	-5342
▁diabetes	-5343
▁abd	-5344
▁sinyal	-5345
hy	-5346
▁inti	-5347
▁dijelaskan	-5348
▁kepr	-5349
▁pemakaian	-5350
▁ucapan	-5351
lahan	-5352
▁gug	-5353
▁musuh	-5354
▁van	-5355
▁tegas	-5356
▁diakses	-5357
▁berkat	-5358
▁sekel	-5359
▁dif	-5360
▁sertifikat	-5361
▁mot	-5362
▁spir	-5363
▁......	-5364
▁mengakui	-5365
icu	-5366
▁pentingnya	-5367
ze	-5368
▁memperc	-5369
▁setuju	-5370
▁instag	-5371
▁spec	-5372
▁yam	-5373
ose	-5374
▁[]	-5375
▁kelahiran	-5376
▁dados	-5377
▁hakim	-5378
san	-5379
▁center	-5380
agikan	-5381
▁siji	-5382
▁dest	-5383
▁bangga	-5384
▁nap	-5385
ke	-5386
▁diterbitkan	-5387
▁tipis	-5388
▁ikuti	-5389
entrasi	-5390
▁berpeng	-5391
▁pertimbangan	-5392
▁mud	-5393
zah	-5394
▁miskin	-5395
rek	-5396
pen	-5397
capada	-5398
▁koord	-5399
▁42	-5400
▁ud	-5401
▁keberhasilan	-5402
▁eur	-5403
encanakan	-5404
omos	-5405
dy	-5406
▁kod	-5407
▁lelaki	-5408
▁simbol	-5409
▁jah	-5410
▁bitcoin	-5411
▁bertindak	-5412
▁bahaya	-5413
andai	-5414
▁jutaan	-5415
▁terapi	-5416
▁are	-5417
jen	-5418
▁mama	-5419
▁sent	-5420
▁danau	-5421
▁baiklah	-5422
agn	-5423
way	-5424
▁vo	-5425
▁leuwih	-5426
▁sanggup	-5427
▁memuaskan	-5428
ering	-5429
▁berkurang	-5430
egara	-5431
▁perek	-5432
alisme	-5433
▁marcapada	-5434
▁madrid	-5435
▁naskah	-5436
▁mutu	-5437
▁ec	-5438
▁praktek	-5439
inis	-5440
▁kebetulan	-5441
▁janji	-5442
umber	-5443
▁long	-5444
ikkan	-5445
▁lunak	-5446
▁ning	-5447
▁park	-5448
▁mengarah	-5449
awancara	-5450
▁pasalnya	-5451
▁ayahnya	-5452
▁kepadanya	-5453
▁kew	-5454
ewe	-5455
▁mulia	-5456
▁lim	-5457
▁rangkaian	-5458
▁ngom	-5459
▁kecel	-5460
argai	-5461
▁youtu	-5462
▁ibunya	-5463
▁perhitungan	-5464
anam	-5465
▁penip	-5466
board	-5467
▁pering	-5468
▁mutlak	-5469
ato	-5470
▁bawang	-5471
▁bol	-5472
ure	-5473
▁terjun	-5474
▁pelajar	-5475
▁dj	-5476
▁lambat	-5477
▁rap	-5478
▁mengirimkan	-5479
▁kenc	-5480
▁planét	-5481
▁goreng	-5482
pertimb	-5483
ubungkan	-5484
oko	-5485
▁toy	-5486
▁dinam	-5487
ign	-5488
▁kelurahan	-5489
▁berunt	-5490
inum	-5491
▁tor	-5492
pertimbangkan	-5493
▁penerapan	-5494
▁fes	-5495
▁pras	-5496
▁gur	-5497
▁kacang	-5498
▁makanya	-5499
▁instr	-5500
▁disertai	-5501
▁search	-5502
wanya	-5503
▁dirilis	-5504
▁hiburan	-5505
waktu	-5506
▁topik	-5507
▁kart	-5508
umumkan	-5509
▁menempatkan	-5510
▁memproduksi	-5511
▁berharga	-5512
▁signifikan	-5513
ampur	-5514
utip	-5515
▁;!--	-5516
▁israel	-5517
▁harian	-5518
▁gelombang	-5519
▁pram	-5520
▁instagram	-5521
▁kehadiran	-5522
▁hehe	-5523
!!	-5524
▁kunjungi	-5525
ese	-5526
▁ama	-5527
▁comm	-5528
▁pela	-5529
▁2002	-5530
▁néb	-5531
▁mengumpulkan	-5532
▁nébula	-5533
akên	-5534
▁gemb	-5535
itab	-5536
etakkan	-5537
▁antaranya	-5538
▁prancis	-5539
▁sug	-5540
▁ginj	-5541
▁one	-5542
▁kecelakaan	-5543
▁putus	-5544
▁surga	-5545
abah	-5546
▁dul	-5547
▁perlahan	-5548
▁kelihatan	-5549
▁anjing	-5550
rika	-5551
yc	-5552
bing	-5553
▁laku	-5554
▁pns	-5555
▁memikirkan	-5556
▁mendes	-5557
▁aneka	-5558
▁???	-5559
▁orig	-5560
har	-5561
assar	-5562
▁kristus	-5563
▁saksi	-5564
▁vagina	-5565
▁kutha	-5566
▁ky	-5567
ukses	-5568
▁menangis	-5569
▁best	-5570
▁lidah	-5571
▁peringatan	-5572
▁liter	-5573
▁dinyatakan	-5574
▁kenyataan	-5575
operasi	-5576
ado	-5577
▁cow	-5578
▁kejahatan	-5579
▁audi	-5580
▁news	-5581
▁jul	-5582
▁pengin	-5583
indo	-5584
▁banten	-5585
▁wir	-5586
ebasan	-5587
adangan	-5588
▁td	-5589
▁kedalam	-5590
acu	-5591
▁harap	-5592
▁asy	-5593
▁dhat	-5594
▁adv	-5595
▁besarnya	-5596
likasikan	-5597
▁diminta	-5598
▁mendengarkan	-5599
yakinan	-5600
▁king	-5601
lis	-5602
▁priv	-5603
▁lantas	-5604
▁baku	-5605
win	-5606
▁gala	-5607
▁pihaknya	-5608
▁dgn	-5609
osir	-5610
▁44	-5611
ifi	-5612
pan	-5613
▁kb	-5614
▁khasiat	-5615
▁kompleks	-5616
▁head	-5617
▁sé	-5618
esta	-5619
▁anyar	-5620
▁cua	-5621
▁adil	-5622
▁cd	-5623
▁apik	-5624
▁lamp	-5625
▁mencetak	-5626
▁renang	-5627
ihatkan	-5628
iru	-5629
▁blok	-5630
▁narkoba	-5631
▁cream	-5632
▁?"	-5633
omod	-5634
▁sesama	-5635
▁ditutup	-5636
▁master	-5637
▁ramadhan	-5638
▁gara	-5639
rap	-5640
▁tutorial	-5641
▁tersen	-5642
▁pisan	-5643
▁ginjal	-5644
gag	-5645
11	-5646
lok	-5647
ultasi	-5648
▁soci	-5649
apt	-5650
laim	-5651
▁menyembuhkan	-5652
awanan	-5653
berry	-5654
▁penutup	-5655
▁kepulauan	-5656
ukah	-5657
ahasa	-5658
▁kow	-5659
▁dipastikan	-5660
▁dada	-5661
▁lari	-5662
ahul	-5663
▁bent	-5664
▁kesimpulan	-5665
▁bersangkutan	-5666
sal	-5667
▁loh	-5668
▁matang	-5669
▁kop	-5670
▁menceritakan	-5671
▁400	-5672
lish	-5673
▁kidul	-5674
▁bersamaan	-5675
▁gold	-5676
▁arsit	-5677
▁membel	-5678
▁43	-5679
éan	-5680
▁mala	-5681
▁berjudul	-5682
▁distributor	-5683
▁kalinya	-5684
▁tertulis	-5685
▁mengelola	-5686
▁sesudah	-5687
▁senya	-5688
pres	-5689
▁inovasi	-5690
▁banjar	-5691
▁")	-5692
▁atap	-5693
▁cob	-5694
uasan	-5695
▁syariah	-5696
ous	-5697
▁mengingatkan	-5698
▁kampanye	-5699
▁garam	-5700
▁koperasi	-5701
▁sholat	-5702
▁menginap	-5703
▁lantaran	-5704
▁akuntansi	-5705
ews	-5706
▁polri	-5707
etakan	-5708
▁acc	-5709
angkit	-5710
▁2001	-5711
▁atlet	-5712
▁memandang	-5713
▁dewi	-5714
▁penggemar	-5715
▁tali	-5716
▁diduga	-5717
▁dibaca	-5718
▁orangtua	-5719
ider	-5720
itahu	-5721
▁akar	-5722
▁mens	-5723
▁ketat	-5724
▁unggul	-5725
▁pengurus	-5726
isinya	-5727
ley	-5728
▁karir	-5729
▁ancaman	-5730
▁aud	-5731
▁dikonsumsi	-5732
ikator	-5733
▁inj	-5734
▁kpu	-5735
▁cipta	-5736
▁mencintai	-5737
▁makassar	-5738
▁tersenyum	-5739
▁elemen	-5740
esis	-5741
▁sayuran	-5742
▁soalnya	-5743
▁250	-5744
▁bareng	-5745
elahan	-5746
▁iphone	-5747
▁kekayaan	-5748
elihara	-5749
▁wiw	-5750
▁nikmat	-5751
▁atm	-5752
▁jadikan	-5753
▁dialami	-5754
▁brows	-5755
▁bg	-5756
▁hum	-5757
▁panggilan	-5758
ikasikan	-5759
▁kw	-5760
▁pura	-5761
▁basah	-5762
▁ngga	-5763
nik	-5764
▁peroleh	-5765
▁bok	-5766
bankan	-5767
▁destinasi	-5768
▁micros	-5769
▁warung	-5770
éhna	-5771
▁marketing	-5772
▁kandang	-5773
▁memesan	-5774
ambi	-5775
▁kemana	-5776
▁john	-5777
▁kuda	-5778
▁waw	-5779
▁cuaca	-5780
▁seberapa	-5781
oth	-5782
▁tampaknya	-5783
aria	-5784
erahan	-5785
▁pengaturan	-5786
▁menjamin	-5787
▁yus	-5788
▁2019	-5789
ere	-5790
▁mengant	-5791
ambahan	-5792
▁kemerd	-5793
▁gat	-5794
rut	-5795
▁mam	-5796
▁jelly	-5797
▁tumbu	-5798
▁dides	-5799
▁berak	-5800
irah	-5801
▁dening	-5802
▁arg	-5803
▁alkitab	-5804
▁obyek	-5805
▁masak	-5806
ontrol	-5807
▁ongk	-5808
▁patut	-5809
▁rekomend	-5810
▁hay	-5811
iteria	-5812
▁sebentar	-5813
▁coklat	-5814
▁limb	-5815
▁penyimpanan	-5816
▁ucap	-5817
▁berpend	-5818
▁mim	-5819
▁parkir	-5820
▁definisi	-5821
▁international	-5822
▁koneksi	-5823
▁mengakses	-5824
▁banjir	-5825
▁perlengkapan	-5826
▁kpk	-5827
lang	-5828
▁ketemu	-5829
▁nenek	-5830
ompet	-5831
hang	-5832
▁posting	-5833
uwur	-5834
▁manajer	-5835
▁dibentuk	-5836
▁youtube	-5837
▁semester	-5838
▁pembuat	-5839
▁keselamatan	-5840
▁klo	-5841
ongkok	-5842
▁padanya	-5843
▁46	-5844
▁enggak	-5845
▁terpilih	-5846
arai	-5847
▁halal	-5848
▁prob	-5849
▁kembang	-5850
indung	-5851
▁depok	-5852
▁riau	-5853
▁follow	-5854
▁arsitek	-5855
▁ideal	-5856
▁mask	-5857
▁jahat	-5858
▁tahapan	-5859
egr	-5860
▁dian	-5861
▁sejenis	-5862
▁bunda	-5863
▁yay	-5864
▁cs	-5865
ior	-5866
▁les	-5867
ediaan	-5868
▁maya	-5869
▁lak	-5870
▁customer	-5871
▁lomb	-5872
jana	-5873
▁pandang	-5874
▁menemb	-5875
▁nagara	-5876
▁memasak	-5877
▁gamat	-5878
▁diaku	-5879
▁penangan	-5880
▁reb	-5881
enengan	-5882
▁penonton	-5883
▁terdengar	-5884
indahkan	-5885
▁warn	-5886
▁keyakinan	-5887
▁toyota	-5888
▁dibilang	-5889
eling	-5890
ejahter	-5891
▁pantas	-5892
anggar	-5893
▁logam	-5894
urit	-5895
▁delapan	-5896
▁meyak	-5897
▁sesi	-5898
▁siapapun	-5899
▁gerak	-5900
▁tercatat	-5901
endam	-5902
▁sekalian	-5903
▁menjelang	-5904
▁nganti	-5905
▁wart	-5906
▁roti	-5907
▁gir	-5908
▁tutur	-5909
▁bimb	-5910
▁kuk	-5911
▁ngad	-5912
▁dirimu	-5913
iraan	-5914
bel	-5915
▁pengganti	-5916
▁lulusan	-5917
antum	-5918
▁penet	-5919
▁bersaing	-5920
▁duit	-5921
▁volume	-5922
▁sepuluh	-5923
▁mengalahkan	-5924
▁memori	-5925
▁inn	-5926
▁1999	-5927
▁sultan	-5928
iliun	-5929
▁menangkap	-5930
usa	-5931
▁kekalahan	-5932
▁hash	-5933
▁menel	-5934
▁ges	-5935
oft	-5936
▁sarapan	-5937
▁mengucapkan	-5938
▁dinilai	-5939
ekuensi	-5940
▁rokok	-5941
▁profil	-5942
ujian	-5943
▁interior	-5944
▁gudang	-5945
▁kebun	-5946
▁pek	-5947
▁bibit	-5948
▁handphone	-5949
▁disesuaikan	-5950
ustakaan	-5951
sek	-5952
iakan	-5953
▁oc	-5954
▁urutan	-5955
▁riset	-5956
▁sewaktu	-5957
▁digelar	-5958
▁tam	-5959
▁berukuran	-5960
afs	-5961
jawab	-5962
kop	-5963
▁padat	-5964
▁hormon	-5965
▁senyawa	-5966
▁tit	-5967
▁mengajukan	-5968
atik	-5969
▁mengganti	-5970
▁disamping	-5971
▁membiarkan	-5972
ily	-5973
▁usai	-5974
unggung	-5975
▁memimpin	-5976
▁bocah	-5977
ibusi	-5978
▁ms	-5979
▁kasar	-5980
▁ngomong	-5981
▁lapak	-5982
▁fenomena	-5983
▁jus	-5984
▁tetep	-5985
▁diangkat	-5986
▁hindari	-5987
▁déning	-5988
▁persero	-5989
▁karakteristik	-5990
▁56	-5991
▁kuno	-5992
▁41	-5993
▁box	-5994
▁masukan	-5995
▁ruk	-5996
▁yahudi	-5997
êk	-5998
▁perancis	-5999
▁keju	-6000
▁pembicara	-6001
val	-6002
ahah	-6003
ko	-6004
▁diperkirakan	-6005
▁57	-6006
▁rekomendasi	-6007
▁afrika	-6008
▁operator	-6009
▁beruntung	-6010
▁kabupatèn	-6011
▁win	-6012
▁berdoa	-6013
▁keba	-6014
▁mangg	-6015
ater	-6016
tera	-6017
--&	-6018
▁orbit	-6019
emuk	-6020
▁pertahanan	-6021
▁kriteria	-6022
▁demokrasi	-6023
▁kitu	-6024
▁nat	-6025
▁famili	-6026
▁temannya	-6027
uth	-6028
▁serat	-6029
▁beredar	-6030
▁bermin	-6031
▁pondok	-6032
▁jendela	-6033
▁gagasan	-6034
▁kontrol	-6035
▁konstruksi	-6036
▁memasukkan	-6037
▁akibatnya	-6038
▁skala	-6039
▁ste	-6040
▁pengolahan	-6041
emas	-6042
▁seminggu	-6043
▁tebal	-6044
▁rumahnya	-6045
▁wau	-6046
▁kemerdekaan	-6047
▁bumn	-6048
▁galaxy	-6049
▁mewujudkan	-6050
▁kelemahan	-6051
▁47	-6052
▁tersangka	-6053
▁.)	-6054
▁menggambarkan	-6055
▁santai	-6056
usuri	-6057
ulir	-6058
▁perjudian	-6059
▁telinga	-6060
ekali	-6061
▁cowok	-6062
▁fase	-6063
tris	-6064
▁kepemimpinan	-6065
▁cetak	-6066
▁yunan	-6067
▁ced	-6068
▁cuci	-6069
▁pecinta	-6070
log	-6071
▁ekor	-6072
▁hei	-6073
▁membedakan	-6074
▁team	-6075
▁shop	-6076
lawan	-6077
▁berhak	-6078
▁instansi	-6079
▁prabu	-6080
▁menyelamatkan	-6081
▁syah	-6082
▁manual	-6083
▁mesir	-6084
▁sampaikan	-6085
ebaran	-6086
▁menyusun	-6087
▁klasik	-6088
ann	-6089
▁ditampilkan	-6090
▁pesanan	-6091
▁praj	-6092
▁makalah	-6093
▁hamb	-6094
▁trend	-6095
▁mengalir	-6096
▁ibnu	-6097
▁tertutup	-6098
▁gempa	-6099
oy	-6100
▁gadget	-6101
▁profes	-6102
awali	-6103
▁terpisah	-6104
▁52	-6105
▁multi	-6106
▁kekerasan	-6107
▁terdaftar	-6108
xi	-6109
▁setahun	-6110
▁.--&	-6111
▁aks	-6112
tin	-6113
isir	-6114
▁hukuman	-6115
▁diselenggarakan	-6116
▁pensi	-6117
amina	-6118
▁beasiswa	-6119
▁piy	-6120
▁tump	-6121
▁selaku	-6122
▁this	-6123
▁yamaha	-6124
lemen	-6125
▁gh	-6126
ria	-6127
▁card	-6128
▁mena	-6129
▁person	-6130
▁hent	-6131
▁triliun	-6132
lasi	-6133
▁platform	-6134
▁kecewa	-6135
visor	-6136
esh	-6137
▁induk	-6138
ky	-6139
▁resp	-6140
arak	-6141
▁sipilis	-6142
▁pemasangan	-6143
▁dirasakan	-6144
▁indikator	-6145
▁1945	-6146
13	-6147
ikeun	-6148
▁termin	-6149
sity	-6150
▁menyak	-6151
▁menyeb	-6152
▁bervari	-6153
▁nafsu	-6154
▁jaga	-6155
▁wed	-6156
▁menghitung	-6157
irinya	-6158
▁optimal	-6159
▁chat	-6160
arto	-6161
▁diser	-6162
uddin	-6163
▁menuntut	-6164
ometer	-6165
ahagia	-6166
▁gul	-6167
▁yunani	-6168
▁gil	-6169
▁kencing	-6170
▁tablet	-6171
▁keluarganya	-6172
▁49	-6173
▁berjuang	-6174
▁pelabuhan	-6175
▁praktik	-6176
▁komitmen	-6177
▁wek	-6178
▁efisien	-6179
▁momen	-6180
oso	-6181
▁pengawasan	-6182
ding	-6183
▁moral	-6184
▁terlepas	-6185
▁arm	-6186
▁kesi	-6187
▁murni	-6188
ugikan	-6189
▁tangannya	-6190
▁mendirikan	-6191
▁tingg	-6192
▁nganggo	-6193
▁54	-6194
antren	-6195
ml	-6196
▁tersebar	-6197
gawe	-6198
umpai	-6199
▁investor	-6200
▁mengenakan	-6201
sip	-6202
▁lombok	-6203
angkung	-6204
▁nel	-6205
orium	-6206
▁perdana	-6207
▁nasib	-6208
▁kambing	-6209
▁sidang	-6210
▁perpustakaan	-6211
▁ded	-6212
▁/&	-6213
▁bec	-6214
▁konvensi	-6215
▁64	-6216
▁setan	-6217
▁reput	-6218
èng	-6219
▁fis	-6220
▁.(	-6221
▁mengam	-6222
▁53	-6223
▁grosir	-6224
▁penjara	-6225
▁mainkan	-6226
▁rahim	-6227
ayangan	-6228
▁sty	-6229
▁seksi	-6230
entuhan	-6231
▁formal	-6232
yukur	-6233
iy	-6234
▁menyebar	-6235
▁menangani	-6236
▁bumbu	-6237
euna	-6238
▁cuc	-6239
▁menyes	-6240
▁lelah	-6241
▁dicari	-6242
andingkan	-6243
wé	-6244
▁dengannya	-6245
▁wawancara	-6246
▁keluhan	-6247
▁xia	-6248
▁lebaran	-6249
tival	-6250
wujud	-6251
▁derajat	-6252
sin	-6253
▁manch	-6254
▁diluar	-6255
▁dibayar	-6256
▁suz	-6257
▁user	-6258
▁wae	-6259
▁58	-6260
▁ganda	-6261
▁memeriksa	-6262
ilitas	-6263
▁butuhkan	-6264
asila	-6265
▁pilk	-6266
▁kepuasan	-6267
ipan	-6268
▁istana	-6269
▁menegaskan	-6270
▁aran	-6271
▁rb	-6272
ght	-6273
▁busana	-6274
▁ngab	-6275
▁firman	-6276
▁meres	-6277
èr	-6278
yanya	-6279
▁saatnya	-6280
▁luhur	-6281
▁mineral	-6282
▁dirancang	-6283
▁semata	-6284
ohong	-6285
▁memec	-6286
▁pengu	-6287
lem	-6288
▁bersik	-6289
▁senanti	-6290
▁operasional	-6291
▁candi	-6292
▁kepribadi	-6293
ahlian	-6294
▁dimensi	-6295
▁variasi	-6296
pro	-6297
▁from	-6298
spot	-6299
▁palembang	-6300
ition	-6301
▁impian	-6302
▁sada	-6303
▁variabel	-6304
rik	-6305
▁senantiasa	-6306
▁gon	-6307
▁opsi	-6308
▁berpengalaman	-6309
alas	-6310
olisian	-6311
▁kesukses	-6312
▁hobi	-6313
imbangan	-6314
▁panjenengan	-6315
▁mewak	-6316
▁buruh	-6317
madi	-6318
▁pesantren	-6319
▁dipert	-6320
▁kursus	-6321
ative	-6322
▁skrip	-6323
ektif	-6324
untutan	-6325
▁kemen	-6326
▁pancasila	-6327
▁59	-6328
▁?”	-6329
▁gand	-6330
▁original	-6331
euh	-6332
wayat	-6333
eul	-6334
ikannya	-6335
linya	-6336
▁ai	-6337
▁pembuluh	-6338
epsi	-6339
eki	-6340
▁teng	-6341
pi	-6342
▁penanganan	-6343
▁192	-6344
▁utamanya	-6345
▁bersyukur	-6346
ancur	-6347
alif	-6348
hh	-6349
▁emb	-6350
▁populasi	-6351
▁til	-6352
▁menyesuaikan	-6353
▁kepolisian	-6354
▁dilanjutkan	-6355
▁memanggil	-6356
▁festival	-6357
▁jurnal	-6358
▁kay	-6359
▁insya	-6360
▁kesejahter	-6361
▁disaj	-6362
▁65	-6363
▁pelanggaran	-6364
▁dipimpin	-6365
aplikasikan	-6366
▁nampak	-6367
▁bodoh	-6368
▁mayoritas	-6369
imbing	-6370
▁limbah	-6371
▁nok	-6372
▁berkas	-6373
▁leher	-6374
▁konsisten	-6375
▁bs	-6376
▁jeneng	-6377
luk	-6378
▁diciptakan	-6379
truktur	-6380
▁furn	-6381
▁support	-6382
eld	-6383
embuhan	-6384
▁merd	-6385
kus	-6386
▁rasakan	-6387
▁saiki	-6388
angsang	-6389
▁suaminya	-6390
ancing	-6391
▁nyar	-6392
▁maran	-6393
tv	-6394
eus	-6395
plin	-6396
▁193	-6397
bukan	-6398
▁kesejahteraan	-6399
▁surya	-6400
▁hashtag	-6401
▁menghancurkan	-6402
▁item	-6403
icarakan	-6404
trans	-6405
omodasi	-6406
▁wus	-6407
▁ati	-6408
▁yayasan	-6409
▁est	-6410
▁wr	-6411
▁hamba	-6412
▁dene	-6413
nia	-6414
▁puisi	-6415
▁diproduksi	-6416
▁ditemp	-6417
▁pahlawan	-6418
▁padaku	-6419
▁tahunan	-6420
▁melihatnya	-6421
ambak	-6422
▁map	-6423
▁lag	-6424
▁wadah	-6425
▁istirahat	-6426
▁tujuannya	-6427
▁terpenting	-6428
▁hatinya	-6429
ebon	-6430
▁rapi	-6431
▁kangg	-6432
▁store	-6433
▁malaikat	-6434
▁fer	-6435
▁green	-6436
▁interaksi	-6437
ambu	-6438
▁speed	-6439
iss	-6440
gunaan	-6441
▁baja	-6442
▁kemasan	-6443
▁disajikan	-6444
ikota	-6445
▁pupuk	-6446
▁1998	-6447
uruk	-6448
▁kebersihan	-6449
▁jelasnya	-6450
▁lolos	-6451
▁ngerti	-6452
▁sapa	-6453
▁seminar	-6454
▁mode	-6455
antau	-6456
▁nepi	-6457
▁disiplin	-6458
▁menghentikan	-6459
▁ragam	-6460
▁bagaiman	-6461
▁keahlian	-6462
▁kudus	-6463
▁sepakbola	-6464
▁,,,	-6465
ool	-6466
▁mengajarkan	-6467
▁menghapus	-6468
▁mall	-6469
▁manchester	-6470
▁konsentrasi	-6471
▁diakui	-6472
▁kulon	-6473
▁rez	-6474
olik	-6475
▁sekretaris	-6476
chi	-6477
▁lurus	-6478
▁riwayat	-6479
▁menyajikan	-6480
▁menyaksikan	-6481
▁run	-6482
▁kotoran	-6483
▁nyi	-6484
▁seneng	-6485
ohonan	-6486
▁trus	-6487
▁eksp	-6488
osiasi	-6489
▁pakar	-6490
▁munculnya	-6491
▁persis	-6492
▁usus	-6493
▁begini	-6494
▁cik	-6495
▁telkomsel	-6496
▁menyentuh	-6497
▁kegag	-6498
▁menyambut	-6499
aingan	-6500
▁ngl	-6501
▁penyelenggaraan	-6502
▁menyemb	-6503
▁600	-6504
êg	-6505
▁menyimp	-6506
▁inst	-6507
▁grand	-6508
▁inspirasi	-6509
▁spesial	-6510
▁hom	-6511
▁won	-6512
▁amin	-6513
uy	-6514
▁jeruk	-6515
ney	-6516
▁sut	-6517
▁kapol	-6518
▁dicapai	-6519
▁sebutan	-6520
▁adam	-6521
mudah	-6522
▁boga	-6523
▁varian	-6524
▁konteks	-6525
▁instal	-6526
▁disek	-6527
▁mewakili	-6528
▁penipuan	-6529
▁senyum	-6530
▁datab	-6531
▁peranan	-6532
▁eg	-6533
▁type	-6534
▁disarankan	-6535
▁fol	-6536
▁persaingan	-6537
▁"<	-6538
intang	-6539
hiri	-6540
hop	-6541
rak	-6542
atangkan	-6543
erat	-6544
idaya	-6545
▁copy	-6546
▁dm	-6547
▁sau	-6548
▁dolar	-6549
▁penyanyi	-6550
▁ars	-6551
80	-6552
▁amal	-6553
▁kesuksesan	-6554
▁microsoft	-6555
▁bt	-6556
▁organik	-6557
▁pilkada	-6558
angkatan	-6559
▁pecah	-6560
inaan	-6561
enda	-6562
▁membuang	-6563
▁pisang	-6564
▁didalamnya	-6565
etika	-6566
▁bukankah	-6567
▁melepaskan	-6568
▁sejati	-6569
lon	-6570
▁penamp	-6571
▁mundur	-6572
▁punggung	-6573
▁kajian	-6574
versi	-6575
▁mengembalikan	-6576
▁akeh	-6577
pu	-6578
▁wontên	-6579
ês	-6580
▁malas	-6581
▁tew	-6582
▁penya	-6583
organ	-6584
▁darat	-6585
▁performa	-6586
kk	-6587
▁intinya	-6588
▁istrinya	-6589
▁berkomunikasi	-6590
indar	-6591
▁51	-6592
▁kelak	-6593
▁pertar	-6594
▁eta	-6595
▁penulisan	-6596
▁sumatra	-6597
erg	-6598
▁cup	-6599
ito	-6600
▁tuntutan	-6601
▁bakat	-6602
▁tiongkok	-6603
▁kk	-6604
▁ikatan	-6605
▁kepribadian	-6606
▁tap	-6607
▁train	-6608
▁ngand	-6609
▁kegagalan	-6610
▁tetangga	-6611
▁berhati	-6612
▁password	-6613
▁jepara	-6614
idae	-6615
▁pengeluaran	-6616
▁merubah	-6617
▁tawaran	-6618
▁diak	-6619
ambangan	-6620
▁tg	-6621
▁naon	-6622
▁purw	-6623
▁rid	-6624
▁maksudnya	-6625
sih	-6626
▁menolong	-6627
▁pom	-6628
▁mikro	-6629
▁bercerita	-6630
▁job	-6631
▁cirebon	-6632
▁jawabannya	-6633
▁lalat	-6634
▁angkat	-6635
▁ditandai	-6636
▁stres	-6637
▁ceme	-6638
▁rumus	-6639
egahan	-6640
anjikan	-6641
▁pengec	-6642
onomian	-6643
▁timnas	-6644
▁berganti	-6645
vid	-6646
▁misal	-6647
▁prajurit	-6648
▁nil	-6649
ancangan	-6650
▁apartemen	-6651
▁diganti	-6652
epakatan	-6653
éna	-6654
▁eksek	-6655
olehkan	-6656
▁tul	-6657
▁hu	-6658
▁walikota	-6659
▁barcel	-6660
▁university	-6661
ei	-6662
▁saha	-6663
pot	-6664
mail	-6665
atorium	-6666
▁cent	-6667
▁that	-6668
▁dev	-6669
▁cip	-6670
▁kedatangan	-6671
▁dipenuhi	-6672
▁dilarang	-6673
▁menghargai	-6674
▁gelas	-6675
aker	-6676
==	-6677
▁ukur	-6678
▁panggung	-6679
▁logo	-6680
▁database	-6681
▁berumur	-6682
▁aksesoris	-6683
▁penyus	-6684
▁mendekati	-6685
▁kla	-6686
▁menggunakannya	-6687
▁bea	-6688
▁body	-6689
▁!!!	-6690
▁ulas	-6691
▁sex	-6692
▁hist	-6693
▁namp	-6694
▁dikunjungi	-6695
▁jumlahnya	-6696
▁dec	-6697
▁sayur	-6698
ingkah	-6699
▁sper	-6700
unungan	-6701
▁dikenakan	-6702
▁batam	-6703
▁seragam	-6704
▁dipahami	-6705
▁masukkan	-6706
▁barcelona	-6707
▁asa	-6708
▁raga	-6709
▁bapa	-6710
namen	-6711
▁membah	-6712
▁lengan	-6713
oner	-6714
▁nt	-6715
▁kesepakatan	-6716
▁siapkan	-6717
▁divisi	-6718
▁62	-6719
▁design	-6720
▁bimbingan	-6721
▁alex	-6722
▁nikah	-6723
▁premium	-6724
sah	-6725
▁yan	-6726
▁nis	-6727
▁pembagian	-6728
▁raks	-6729
▁water	-6730
▁dikerjakan	-6731
▁meun	-6732
▁perse	-6733
ring	-6734
arjo	-6735
als	-6736
hak	-6737
▁selera	-6738
▁kebebasan	-6739
ture	-6740
ungu	-6741
▁sela	-6742
èw	-6743
▁ori	-6744
▁ditemui	-6745
▁single	-6746
▁mg	-6747
▁85	-6748
▁deng	-6749
sm	-6750
▁berga	-6751
▁saben	-6752
▁bosan	-6753
▁kados	-6754
▁deb	-6755
▁wé	-6756
okter	-6757
advisor	-6758
▁buru	-6759
▁mont	-6760
▁abdul	-6761
orer	-6762
▁kesatuan	-6763
▁memaks	-6764
▁hd	-6765
▁erat	-6766
▁perekonomian	-6767
▁chip	-6768
▁gum	-6769
▁thail	-6770
adak	-6771
otaan	-6772
▁bij	-6773
▁hijab	-6774
ning	-6775
inder	-6776
▁nada	-6777
▁hehehe	-6778
▁labor	-6779
▁mab	-6780
▁kuasa	-6781
▁wartawan	-6782
▁ih	-6783
▁fils	-6784
▁kian	-6785
▁siklus	-6786
▁()	-6787
▁berulang	-6788
▁thailand	-6789
▁cam	-6790
intahkan	-6791
emah	-6792
▁1000	-6793
▁bae	-6794
▁tren	-6795
▁blackberry	-6796
▁putr	-6797
▁utang	-6798
▁list	-6799
▁abang	-6800
▁bertugas	-6801
▁kalawan	-6802
▁fans	-6803
▁liver	-6804
itr	-6805
gin	-6806
las	-6807
▁misteri	-6808
▁sakum	-6809
▁menghadirkan	-6810
▁rupanya	-6811
ainan	-6812
atap	-6813
▁bervariasi	-6814
▁kebakaran	-6815
lic	-6816
otensi	-6817
▁ketinggian	-6818
tad	-6819
▁obatan	-6820
ifik	-6821
▁kendala	-6822
▁putaran	-6823
▁pasca	-6824
▁lis	-6825
▁rute	-6826
▁tembak	-6827
▁mempercepat	-6828
▁bada	-6829
▁memperlihatkan	-6830
▁potong	-6831
▁wik	-6832
▁perih	-6833
▁cair	-6834
▁medi	-6835
▁menyerahkan	-6836
▁utawi	-6837
▁./	-6838
▁dijalankan	-6839
▁tai	-6840
▁tripadvisor	-6841
engkeun	-6842
▁apple	-6843
aram	-6844
▁mahk	-6845
▁tante	-6846
▁loba	-6847
▁rib	-6848
ungkus	-6849
▁skripsi	-6850
▁kritik	-6851
▁kt	-6852
▁bermacam	-6853
br	-6854
hot	-6855
▁ditinggal	-6856
▁led	-6857
▁ayeuna	-6858
▁dipasang	-6859
odoh	-6860
▁gede	-6861
▁layaknya	-6862
▁pembukaan	-6863
iaan	-6864
▁liya	-6865
back	-6866
▁boy	-6867
▁bentuknya	-6868
▁bettor	-6869
▁kebahagia	-6870
▁dial	-6871
▁bahas	-6872
ading	-6873
▁kumbang	-6874
▁lor	-6875
▁berdampak	-6876
▁bap	-6877
▁karet	-6878
▁dibeli	-6879
▁liar	-6880
▁kurangnya	-6881
▁belakangan	-6882
▁bany	-6883
▁hart	-6884
gian	-6885
▁pedoman	-6886
▁pemk	-6887
odi	-6888
▁rind	-6889
▁piyambak	-6890
▁belas	-6891
▁terjaga	-6892
▁cerah	-6893
asari	-6894
▁mig	-6895
▁gant	-6896
▁jaket	-6897
sc	-6898
ire	-6899
▁lump	-6900
▁seakan	-6901
▁ran	-6902
bawa	-6903
▁mengu	-6904
▁melebih	-6905
▁bergantung	-6906
ote	-6907
▁sentuhan	-6908
▁bom	-6909
▁raksasa	-6910
agukan	-6911
▁amarga	-6912
baru	-6913
anfaatan	-6914
▁menanyakan	-6915
▁love	-6916
▁roma	-6917
▁menet	-6918
ém	-6919
▁whats	-6920
▁budak	-6921
▁ketim	-6922
▁terpaksa	-6923
▁hmm	-6924
aga	-6925
unkan	-6926
▁gitar	-6927
▁rasi	-6928
ternal	-6929
stal	-6930
▁epis	-6931
▁ugi	-6932
▁diperk	-6933
▁bijak	-6934
anjutan	-6935
▁cu	-6936
ukeut	-6937
▁prioritas	-6938
ordi	-6939
oi	-6940
▁hun	-6941
▁sump	-6942
iam	-6943
utihan	-6944
urung	-6945
▁aktor	-6946
▁filsafat	-6947
▁beroperasi	-6948
▁akrab	-6949
▁engine	-6950
▁life	-6951
▁damai	-6952
▁gajah	-6953
▁pesat	-6954
jub	-6955
▁dikutip	-6956
gerakan	-6957
▁menggantikan	-6958
▁astr	-6959
▁wordpress	-6960
▁menyarankan	-6961
▁fung	-6962
▁dituj	-6963
▁mekanisme	-6964
▁label	-6965
▁bari	-6966
▁abs	-6967
ananya	-6968
▁soekar	-6969
ror	-6970
▁kowe	-6971
entangan	-6972
eskan	-6973
▁citra	-6974
▁berpendapat	-6975
madiyah	-6976
mo	-6977
▁cle	-6978
aton	-6979
▁mempermudah	-6980
▁lipat	-6981
▁hil	-6982
▁pensiun	-6983
▁maneh	-6984
▁matanya	-6985
empurn	-6986
pt	-6987
▁jd	-6988
▁saf	-6989
▁bersikap	-6990
▁isinya	-6991
▁polit	-6992
▁bayangkan	-6993
▁bursa	-6994
ontal	-6995
tensi	-6996
▁jaj	-6997
andainya	-6998
▁diisi	-6999
▁patung	-7000
▁merugikan	-7001
▁jilbab	-7002
rama	-7003
▁):	-7004
araha	-7005
▁botên	-7006
▁tembung	-7007
emukakan	-7008
▁tajam	-7009
engahan	-7010
▁terminal	-7011
▁analisa	-7012
eung	-7013
▁lirik	-7014
▁kekasih	-7015
my	-7016
eur	-7017
▁duwe	-7018
▁psikologi	-7019
▁sawij	-7020
ject	-7021
▁kebahagiaan	-7022
▁tewas	-7023
▁tempatnya	-7024
▁66	-7025
▁perbandingan	-7026
egi	-7027
▁html	-7028
▁down	-7029
▁peman	-7030
eber	-7031
▁ditu	-7032
kandung	-7033
▁mencatat	-7034
▁melatih	-7035
▁dipengaruhi	-7036
aluan	-7037
▁than	-7038
▁dor	-7039
▁repot	-7040
▁high	-7041
under	-7042
▁menyerah	-7043
▁deal	-7044
▁perkeb	-7045
▁rong	-7046
▁petern	-7047
▁penginapan	-7048
▁hadapan	-7049
▁melaporkan	-7050
▁cobalah	-7051
alifikasi	-7052
??	-7053
▁gm	-7054
▁oksi	-7055
▁terlambat	-7056
▁apb	-7057
amaian	-7058
▁pij	-7059
▁ditambahkan	-7060
▁genus	-7061
▁seandainya	-7062
▁polres	-7063
▁tiada	-7064
▁pergerakan	-7065
artikan	-7066
▁ditempatkan	-7067
▁diajukan	-7068
▁lond	-7069
▁wawasan	-7070
▁menjabat	-7071
▁memperkuat	-7072
▁york	-7073
ambilan	-7074
▁kecerd	-7075
engi	-7076
▁good	-7077
▁rajin	-7078
▁bunuh	-7079
▁sint	-7080
▁syukur	-7081
▁ditempat	-7082
▁juru	-7083
▁disukai	-7084
▁pencegahan	-7085
▁sawah	-7086
▁open	-7087
omotif	-7088
▁lembar	-7089
▁pakan	-7090
▁cedera	-7091
lar	-7092
▁pencipta	-7093
pes	-7094
▁menyakit	-7095
▁bpk	-7096
▁printer	-7097
hawat	-7098
▁xiaomi	-7099
▁abdi	-7100
▁kantong	-7101
▁mangga	-7102
▁dibahas	-7103
▁dijamin	-7104
▁penerima	-7105
▁bangkit	-7106
▁mangsa	-7107
antang	-7108
ujuk	-7109
▁zona	-7110
▁suzuki	-7111
▁800	-7112
▁demam	-7113
▁);	-7114
abar	-7115
ohol	-7116
bert	-7117
▁ekonom	-7118
▁krisis	-7119
awis	-7120
▁broker	-7121
▁pengambilan	-7122
elat	-7123
▁rent	-7124
▁terkesan	-7125
▁melanggar	-7126
▁ketak	-7127
▁panon	-7128
▁nokia	-7129
▁primordi	-7130
tujui	-7131
▁perkebunan	-7132
▁tool	-7133
identifikasi	-7134
▁sertifikasi	-7135
▁tunt	-7136
nes	-7137
▁disimpan	-7138
▁menular	-7139
▁menjauh	-7140
▁terjamin	-7141
▁menand	-7142
▁ment	-7143
▁fisika	-7144
▁bulat	-7145
▁call	-7146
▁wkwk	-7147
▁terbilang	-7148
▁jalma	-7149
▁nek	-7150
▁lezat	-7151
▁konsultasi	-7152
antis	-7153
▁ramuan	-7154
▁hidung	-7155
jolan	-7156
▁meg	-7157
▁senior	-7158
ombongan	-7159
▁mengonsumsi	-7160
▁ditujukan	-7161
astis	-7162
▁pengadaan	-7163
▁nk	-7164
▁turki	-7165
▁jp	-7166
iture	-7167
▁ray	-7168
▁formasi	-7169
▁wifi	-7170
▁konvensional	-7171
▁mengundang	-7172
▁agan	-7173
78	-7174
▁72	-7175
▁__	-7176
▁keputihan	-7177
▁rela	-7178
▁club	-7179
▁primordial	-7180
▁blogspot	-7181
▁”,	-7182
sion	-7183
▁cons	-7184
▁wiwit	-7185
▁bugil	-7186
omosikan	-7187
▁kutu	-7188
ift	-7189
▁spesifik	-7190
▁kuota	-7191
▁karangan	-7192
▁dang	-7193
▁produc	-7194
▁acco	-7195
▁bekerj	-7196
▁whatsapp	-7197
sional	-7198
imen	-7199
▁mba	-7200
▁susunan	-7201
▁mengul	-7202
entr	-7203
19	-7204
eteksi	-7205
▁sedengkeun	-7206
ebalan	-7207
▁ternak	-7208
▁pengendalian	-7209
obrol	-7210
▁lambung	-7211
▁dimin	-7212
▁perbankan	-7213
▁tempo	-7214
▁tepi	-7215
eluk	-7216
▁sosialisasi	-7217
esu	-7218
▁chels	-7219
ux	-7220
itudo	-7221
▁libur	-7222
▁devel	-7223
▁henteu	-7224
▁mengejar	-7225
▁padamu	-7226
▁sabun	-7227
▁lil	-7228
ery	-7229
▁pencari	-7230
▁mainan	-7231
▁hiper	-7232
▁anus	-7233
ated	-7234
▁tertawa	-7235
▁pemanfaatan	-7236
obaan	-7237
▁chelsea	-7238
▁sukar	-7239
▁akademik	-7240
▁pertengahan	-7241
ecil	-7242
▁dagang	-7243
▁cy	-7244
▁social	-7245
▁melebihi	-7246
▁relev	-7247
ativ	-7248
▁intim	-7249
▁berencana	-7250
iasa	-7251
▁tunai	-7252
▁haram	-7253
▁merdeka	-7254
▁show	-7255
umu	-7256
work	-7257
▁janganlah	-7258
▁cinc	-7259
▁fant	-7260
▁raf	-7261
▁robot	-7262
▁makasih	-7263
▁keraj	-7264
▁membandingkan	-7265
▁binary	-7266
▁aslinya	-7267
▁wayang	-7268
▁ditanya	-7269
▁akomodasi	-7270
idasi	-7271
▁kecerdasan	-7272
igur	-7273
▁page	-7274
▁menangg	-7275
▁caf	-7276
▁beton	-7277
▁keterb	-7278
air	-7279
▁sajarah	-7280
▁indo	-7281
▁gawe	-7282
▁produktif	-7283
ath	-7284
▁personal	-7285
isimal	-7286
alib	-7287
▁hasan	-7288
▁konfir	-7289
ehan	-7290
▁sira	-7291
▁bersedia	-7292
▁od	-7293
▁ngel	-7294
▁ayu	-7295
pol	-7296
▁audio	-7297
▁pipa	-7298
▁budidaya	-7299
▁login	-7300
▁disusun	-7301
▁london	-7302
▁kasi	-7303
esa	-7304
▁hahahaha	-7305
▁sendirian	-7306
▁saraf	-7307
utnya	-7308
▁kesen	-7309
▁popular	-7310
▁pemegang	-7311
▁antr	-7312
ense	-7313
emahkan	-7314
▁mengand	-7315
cam	-7316
▁halo	-7317
▁deukeut	-7318
▁lemari	-7319
▁membagikan	-7320
▁perkiraan	-7321
arm	-7322
▁impl	-7323
▁bra	-7324
ejo	-7325
▁alasannya	-7326
▁kosm	-7327
▁champi	-7328
▁menunjukan	-7329
iayaan	-7330
▁pelan	-7331
▁memadai	-7332
▁oksigen	-7333
▁jama	-7334
▁option	-7335
esterol	-7336
angku	-7337
ikinya	-7338
▁ordo	-7339
▁bn	-7340
akapan	-7341
▁nulis	-7342
▁bunyi	-7343
▁kecap	-7344
▁berbahasa	-7345
▁profit	-7346
yana	-7347
▁letak	-7348
▁mengharapkan	-7349
▁ibuk	-7350
▁rumit	-7351
▁cep	-7352
▁pati	-7353
ernaan	-7354
▁memperkenalkan	-7355
rim	-7356
ging	-7357
▁penguasa	-7358
▁badag	-7359
▁formulir	-7360
êb	-7361
▁menyang	-7362
▁dimasukkan	-7363
pool	-7364
▁terbit	-7365
▁mencuri	-7366
▁visual	-7367
▁keadilan	-7368
iting	-7369
▁kedokter	-7370
▁batin	-7371
▁semula	-7372
etujui	-7373
▁institu	-7374
▁nganj	-7375
▁obs	-7376
▁kaping	-7377
ominasi	-7378
▁keman	-7379
▁pew	-7380
▁terbiasa	-7381
▁penemuan	-7382
▁truk	-7383
▁sg	-7384
▁memuat	-7385
▁pameran	-7386
▁pemilih	-7387
▁edisi	-7388
▁bertaruh	-7389
▁laboratorium	-7390
▁sig	-7391
▁furniture	-7392
▁award	-7393
erus	-7394
▁menghubungkan	-7395
▁kerajinan	-7396
▁taw	-7397
▁impor	-7398
▁majelis	-7399
▁pengemb	-7400
▁beres	-7401
yi	-7402
▁1997	-7403
▁menemui	-7404
▁merokok	-7405
▁stadion	-7406
▁atur	-7407
▁nusa	-7408
▁cic	-7409
▁sawijining	-7410
▁coll	-7411
▁house	-7412
▁ahok	-7413
▁santri	-7414
js	-7415
▁tambahkan	-7416
▁menon	-7417
▁pit	-7418
▁neraka	-7419
▁batuk	-7420
▁120	-7421
eam	-7422
▁ngah	-7423
▁bagikan	-7424
▁memicu	-7425
▁paris	-7426
▁alloh	-7427
▁hong	-7428
▁kedudukan	-7429
▁("	-7430
daftarkan	-7431
kripsikan	-7432
usikan	-7433
▁sofa	-7434
▁bermas	-7435
▁mengab	-7436
▁angel	-7437
our	-7438
▁melengkapi	-7439
raf	-7440
▁bacaan	-7441
▁padi	-7442
▁pencernaan	-7443
▁kehend	-7444
▁suar	-7445
▁cilik	-7446
▁cv	-7447
gia	-7448
▁sensit	-7449
▁sepi	-7450
▁penambahan	-7451
60	-7452
▁ngag	-7453
▁sarjana	-7454
▁distribusi	-7455
▁pengelola	-7456
aptasi	-7457
▁manung	-7458
▁sekadar	-7459
oan	-7460
▁mendatangkan	-7461
▁start	-7462
èl	-7463
▁kaf	-7464
▁koran	-7465
▁kanc	-7466
▁ditangkap	-7467
▁pembinaan	-7468
▁campur	-7469
▁sifatnya	-7470
▁rugi	-7471
▁selamanya	-7472
▁prab	-7473
que	-7474
▁magnitudo	-7475
▁kritis	-7476
▁77	-7477
▁sembilan	-7478
▁pendahul	-7479
▁1990	-7480
▁makam	-7481
upun	-7482
▁jambi	-7483
sis	-7484
ange	-7485
jaj	-7486
▁jitu	-7487
▁mengendalikan	-7488
▁alergi	-7489
▁baj	-7490
▁nikmati	-7491
▁ngaw	-7492
▁mail	-7493
▁memelihara	-7494
kripsi	-7495
▁bre	-7496
▁bata	-7497
akna	-7498
▁hadis	-7499
▁diajak	-7500
▁sdm	-7501
▁natural	-7502
ehi	-7503
▁bertahun	-7504
agama	-7505
▁tepung	-7506
▁wall	-7507
▁elegan	-7508
eimbangan	-7509
▁tech	-7510
▁sunnah	-7511
▁bandingkan	-7512
▁nik	-7513
zer	-7514
▁tong	-7515
▁hendaknya	-7516
▁episode	-7517
▁skill	-7518
____	-7519
▁liyane	-7520
irman	-7521
▁menunjang	-7522
▁atom	-7523
▁kolesterol	-7524
▁jalanan	-7525
▁ilmuwan	-7526
▁dirumah	-7527
▁lek	-7528
juk	-7529
▁joko	-7530
▁fri	-7531
▁baginya	-7532
▁infras	-7533
▁sadaya	-7534
▁revolusi	-7535
bet	-7536
▁kangen	-7537
▁mudahan	-7538
15	-7539
▁sit	-7540
▁panen	-7541
ormati	-7542
▁janin	-7543
▁norma	-7544
▁dugaan	-7545
▁lamanya	-7546
▁%,	-7547
▁browser	-7548
kt	-7549
▁sareng	-7550
▁isih	-7551
▁didasarkan	-7552
wun	-7553
▁tbk	-7554
empuran	-7555
▁ktp	-7556
ss	-7557
▁berminat	-7558
▁aktiv	-7559
▁penjaga	-7560
▁offline	-7561
▁iq	-7562
▁diubah	-7563
awasi	-7564
qq	-7565
▁setting	-7566
▁dikelola	-7567
can	-7568
▁gig	-7569
▁mengumumkan	-7570
▁ever	-7571
▁kaget	-7572
▁dius	-7573
▁penetapan	-7574
ewakan	-7575
▁hawa	-7576
▁diperb	-7577
▁pdf	-7578
▁serba	-7579
▁menempel	-7580
▁hor	-7581
▁mt	-7582
▁terbar	-7583
▁tenda	-7584
ajang	-7585
anjakan	-7586
▁muhammadiyah	-7587
▁big	-7588
▁transm	-7589
▁lukisan	-7590
▁semesta	-7591
▁kedokteran	-7592
▁fc	-7593
▁bendera	-7594
▁grafis	-7595
tib	-7596
▁pagar	-7597
▁beralih	-7598
▁dosis	-7599
▁gabungan	-7600
▁panel	-7601
▁player	-7602
ungkapan	-7603
èwèk	-7604
▁any	-7605
▁kenangan	-7606
▁gk	-7607
▁yud	-7608
▁dipandang	-7609
▁robah	-7610
▁terbagi	-7611
▁ngeun	-7612
▁ulah	-7613
▁pertempuran	-7614
▁mie	-7615
▁laman	-7616
ulangan	-7617
fr	-7618
▁teras	-7619
▁vii	-7620
▁seter	-7621
gu	-7622
▁sediakan	-7623
ency	-7624
▁david	-7625
▁ejak	-7626
▁alas	-7627
▁terhubung	-7628
adari	-7629
ele	-7630
▁setara	-7631
egal	-7632
▁bagéan	-7633
▁hosting	-7634
epend	-7635
ogo	-7636
▁sind	-7637
▁wajahnya	-7638
abut	-7639
▁dibantu	-7640
ormatan	-7641
▁jun	-7642
olan	-7643
▁raw	-7644
▁perak	-7645
▁pegunungan	-7646
▁buy	-7647
istensi	-7648
▁komand	-7649
yataannya	-7650
▁etika	-7651
▁pust	-7652
▁dusun	-7653
▁sababaraha	-7654
ensif	-7655
14	-7656
▁ug	-7657
▁renc	-7658
▁matur	-7659
▁sempit	-7660
▁statistik	-7661
▁mengandalkan	-7662
▁tub	-7663
▁95	-7664
anjur	-7665
▁bgt	-7666
▁loker	-7667
▁serial	-7668
▁pengajaran	-7669
▁pandai	-7670
▁racun	-7671
▁dhatêng	-7672
▁ngaj	-7673
▁lee	-7674
adaban	-7675
▁survei	-7676
▁anggap	-7677
▁simpanan	-7678
▁rok	-7679
▁semi	-7680
▁milan	-7681
▁reli	-7682
urg	-7683
▁regi	-7684
ole	-7685
▁dihadapi	-7686
▁agenda	-7687
▁mendalam	-7688
▁asma	-7689
uu	-7690
istan	-7691
▁konfirmasi	-7692
▁institusi	-7693
▁peneg	-7694
ush	-7695
▁supp	-7696
ferensi	-7697
▁berpart	-7698
▁sebabnya	-7699
▁ngora	-7700
▁berfikir	-7701
▁mengeks	-7702
▁turnamen	-7703
▁nasabah	-7704
▁menyangkut	-7705
▁kualifikasi	-7706
▁berkumpul	-7707
▁tambang	-7708
).	-7709
▁terkej	-7710
▁badhe	-7711
usinya	-7712
yong	-7713
ander	-7714
▁tingkah	-7715
ale	-7716
▁fungsinya	-7717
fik	-7718
▁dapet	-7719
▁ceritanya	-7720
arannya	-7721
▁tanam	-7722
idan	-7723
▁los	-7724
▁lp	-7725
▁menyusui	-7726
▁penyeles	-7727
▁pln	-7728
▁bukannya	-7729
▁bé	-7730
▁nanah	-7731
imalkan	-7732
▁modifikasi	-7733
dom	-7734
▁soekarno	-7735
▁premi	-7736
▁ejakulasi	-7737
▁keag	-7738
▁komposisi	-7739
▁terganggu	-7740
▁manéhna	-7741
▁mengurus	-7742
▁berw	-7743
▁ruj	-7744
▁190	-7745
▁sperma	-7746
▁iklim	-7747
engkon	-7748
▁mbah	-7749
▁buj	-7750
▁lengk	-7751
ancar	-7752
▁waspada	-7753
lakukan	-7754
▁hancur	-7755
▁73	-7756
▁eksternal	-7757
▁pelajari	-7758
dik	-7759
▁xi	-7760
18	-7761
▁pungkasan	-7762
▁permohonan	-7763
embunyi	-7764
emani	-7765
▁natal	-7766
egrasi	-7767
▁hindu	-7768
▁pusing	-7769
▁rock	-7770
▁085	-7771
oning	-7772
▁pinggir	-7773
▁gini	-7774
dha	-7775
▁berkar	-7776
lum	-7777
▁penyusunan	-7778
▁spons	-7779
▁kaliyan	-7780
eti	-7781
airan	-7782
▁primer	-7783
mur	-7784
ayat	-7785
▁hidangan	-7786
▁hapus	-7787
▁perman	-7788
▁sandi	-7789
unggah	-7790
▁masker	-7791
pal	-7792
▁éks	-7793
▁depannya	-7794
▁ketakutan	-7795
▁scr	-7796
ahit	-7797
▁chr	-7798
▁berpr	-7799
▁bilangan	-7800
▁ekspor	-7801
▁doll	-7802
▁dhèwèk	-7803
▁tembok	-7804
▁sensor	-7805
▁dhewe	-7806
▁wewengkon	-7807
▁salahnya	-7808
▁antu	-7809
▁intr	-7810
igasi	-7811
oter	-7812
olongan	-7813
utif	-7814
roh	-7815
upaya	-7816
▁ketimbang	-7817
sias	-7818
▁menganalis	-7819
▁segalanya	-7820
utur	-7821
▁kakek	-7822
▁shah	-7823
▁jangk	-7824
▁qs	-7825
▁miss	-7826
incian	-7827
▁koordinasi	-7828
▁moh	-7829
ikh	-7830
aaa	-7831
kp	-7832
emia	-7833
▁iso	-7834
▁rekaman	-7835
▁liyané	-7836
▁hutang	-7837
egas	-7838
▁bm	-7839
70	-7840
▁dinamakan	-7841
▁pengamatan	-7842
▁pred	-7843
hal	-7844
▁awit	-7845
▁independ	-7846
▁dialog	-7847
▁cash	-7848
abilitas	-7849
▁baby	-7850
ihi	-7851
▁berpartisipasi	-7852
▁pramuka	-7853
ella	-7854
▁perkaw	-7855
landia	-7856
pet	-7857
▁adi	-7858
▁kencang	-7859
▁saged	-7860
▁sumur	-7861
▁batasan	-7862
▁dz	-7863
▁pertunjukan	-7864
▁transp	-7865
▁menghemat	-7866
▁madras	-7867
▁buta	-7868
yun	-7869
▁fed	-7870
abatan	-7871
▁rumput	-7872
▁simple	-7873
▁romantis	-7874
▁drs	-7875
▁pemelih	-7876
erjaan	-7877
▁masalahnya	-7878
▁mematikan	-7879
▁membesar	-7880
ster	-7881
▁pengk	-7882
▁aroma	-7883
▁memf	-7884
barui	-7885
▁maria	-7886
▁arsitektur	-7887
yono	-7888
▁patah	-7889
▁ditur	-7890
▁anggur	-7891
▁ijin	-7892
▁wikip	-7893
▁sebetul	-7894
ico	-7895
ations	-7896
▁ngaran	-7897
▁menutupi	-7898
onc	-7899
▁klaim	-7900
▁memperb	-7901
▁god	-7902
▁hem	-7903
▁berlari	-7904
▁dihadiri	-7905
▁flu	-7906
ampingi	-7907
▁flor	-7908
▁ads	-7909
▁ngant	-7910
▁[...	-7911
▁riz	-7912
▁adegan	-7913
▁infrastruktur	-7914
unuhan	-7915
▁diriku	-7916
▁percobaan	-7917
▁mendadak	-7918
onia	-7919
▁penyembuhan	-7920
angsing	-7921
▁animasi	-7922
aten	-7923
▁sebetulnya	-7924
▁jatim	-7925
▁sunan	-7926
▁manungsa	-7927
elai	-7928
▁perahu	-7929
▁toh	-7930
atet	-7931
▁menatap	-7932
unyikan	-7933
▁stress	-7934
▁tersisa	-7935
▁sayap	-7936
▁jajaran	-7937
▁tabung	-7938
▁seribu	-7939
▁bambu	-7940
▁booking	-7941
▁kader	-7942
▁hus	-7943
▁food	-7944
▁menyerap	-7945
rit	-7946
inik	-7947
▁beran	-7948
▁resolusi	-7949
▁berlatih	-7950
▁tabungan	-7951
oney	-7952
▁jagung	-7953
▁frekuensi	-7954
▁?.	-7955
▁tingginya	-7956
▁your	-7957
▁viv	-7958
▁rombongan	-7959
▁pembunuhan	-7960
▁tl	-7961
▁pemin	-7962
▁mengund	-7963
▁umar	-7964
▁dompet	-7965
vin	-7966
▁naga	-7967
▁kip	-7968
▁hack	-7969
▁donya	-7970
▁latin	-7971
▁menghadap	-7972
▁telusuri	-7973
▁takkan	-7974
ubeul	-7975
▁pencap	-7976
osal	-7977
▁liverpool	-7978
ekah	-7979
▁reading	-7980
ics	-7981
▁menuliskan	-7982
▁menakjub	-7983
iu	-7984
▁bangs	-7985
spirasi	-7986
▁tuanya	-7987
▁demikianlah	-7988
▁pemeliharaan	-7989
▁diingat	-7990
▁besaran	-7991
▁nomer	-7992
▁diminati	-7993
▁manager	-7994
▁anal	-7995
▁terkini	-7996
▁instrumen	-7997
cd	-7998
▁filip	-7999
▁kabin	-8000
▁reputasi	-8001
▁cover	-8002
▁monitor	-8003
▁utuh	-8004
▁pengantin	-8005
▁tansah	-8006
▁champions	-8007
▁dimaksudkan	-8008
▁xl	-8009
▁music	-8010
akarta	-8011
▁secepat	-8012
▁yén	-8013
ford	-8014
▁keun	-8015
▁wektu	-8016
▁mengas	-8017
▁simpan	-8018
▁membelinya	-8019
▁madrasah	-8020
ety	-8021
▁keterl	-8022
andi	-8023
urt	-8024
edul	-8025
▁obj	-8026
▁gp	-8027
▁trop	-8028
▁nafas	-8029
▁berolah	-8030
▁subur	-8031
▁pembu	-8032
▁mengukur	-8033
▁yahoo	-8034
▁pembal	-8035
aruskan	-8036
sina	-8037
▁pengakuan	-8038
▁yaiku	-8039
▁memecahkan	-8040
yn	-8041
▁wow	-8042
▁menakjubkan	-8043
▁memek	-8044
▁peradaban	-8045
amana	-8046
▁happ	-8047
isian	-8048
▁yusuf	-8049
▁bermu	-8050
▁usb	-8051
arane	-8052
▁dianj	-8053
ector	-8054
▁manfaatnya	-8055
utrad	-8056
▁ular	-8057
▁pbb	-8058
▁gap	-8059
▁berlanjut	-8060
▁munt	-8061
▁neng	-8062
▁text	-8063
▁asupan	-8064
late	-8065
▁pangl	-8066
▁pengukuran	-8067
▁ritual	-8068
▁terkandung	-8069
▁ss	-8070
▁berjumlah	-8071
▁usd	-8072
▁63	-8073
▁sampel	-8074
angkeun	-8075
él	-8076
▁69	-8077
▁!”	-8078
▁ngeb	-8079
uansa	-8080
▁asap	-8081
▁alumni	-8082
aruan	-8083
▁penyelenggara	-8084
ansir	-8085
▁mataram	-8086
▁usahakan	-8087
▁mum	-8088
inasikan	-8089
▁jelaskan	-8090
▁wétan	-8091
▁kontribusi	-8092
▁seterusnya	-8093
▁pack	-8094
anjangan	-8095
▁dhèwèké	-8096
▁kuh	-8097
▁bekerjasama	-8098
▁asus	-8099
▁prib	-8100
▁fb	-8101
▁registrasi	-8102
▁akèh	-8103
▁1994	-8104
isl	-8105
▁reformasi	-8106
▁jemp	-8107
▁isl	-8108
▁andalan	-8109
gabungkan	-8110
▁kelima	-8111
▁studio	-8112
▁otomotif	-8113
▁pembicaraan	-8114
▁dianjurkan	-8115
▁persetujuan	-8116
▁perayaan	-8117
▁cry	-8118
tusan	-8119
▁implement	-8120
▁ustad	-8121
tle	-8122
iskinan	-8123
erna	-8124
▁rub	-8125
▁unggulan	-8126
▁omah	-8127
▁hang	-8128
▁ketinggalan	-8129
▁stok	-8130
gar	-8131
aib	-8132
▁angkutan	-8133
▁menjel	-8134
▁sakumna	-8135
▁trader	-8136
▁sedem	-8137
▁imb	-8138
▁garu	-8139
40	-8140
▁gend	-8141
ekatan	-8142
▁basis	-8143
enam	-8144
uary	-8145
▁katolik	-8146
ping	-8147
▁lot	-8148
▁cincin	-8149
▁persatuan	-8150
▁perkawinan	-8151
▁terkejut	-8152
▁stroke	-8153
▁kerana	-8154
til	-8155
andu	-8156
arung	-8157
▁..,	-8158
ekor	-8159
▁fah	-8160
com	-8161
▁mantap	-8162
▁benjolan	-8163
▁pencapaian	-8164
22	-8165
▁berenang	-8166
▁aksara	-8167
nan	-8168
▁wahyu	-8169
alisasikan	-8170
▁view	-8171
▁ngeunaan	-8172
▁pengawas	-8173
uto	-8174
agen	-8175
▁papa	-8176
▁cangk	-8177
▁account	-8178
▁baks	-8179
▁berlalu	-8180
yakan	-8181
érén	-8182
▁add	-8183
▁solid	-8184
atinya	-8185
▁dihitung	-8186
▁larangan	-8187
▁dollar	-8188
▁membagi	-8189
16	-8190
▁nb	-8191
▁dira	-8192
akwa	-8193
▁stadium	-8194
▁sony	-8195
▁anime	-8196
▁keseimbangan	-8197
▁memaksa	-8198
▁konsul	-8199
▁harm	-8200
▁bambang	-8201
ogan	-8202
▁nuk	-8203
▁jenjang	-8204
pasar	-8205
▁berdarah	-8206
ativitas	-8207
atar	-8208
aca	-8209
▁menekankan	-8210
dan	-8211
ilas	-8212
▁tekstur	-8213
▁babagan	-8214
izin	-8215
▁beriman	-8216
▁instalasi	-8217
▁700	-8218
▁panonpo	-8219
▁injil	-8220
▁pn	-8221
▁dv	-8222
▁dealer	-8223
▁pendidik	-8224
▁penyebabnya	-8225
▁dipanggil	-8226
▁kenyataannya	-8227
ox	-8228
▁menyal	-8229
▁komod	-8230
ection	-8231
yai	-8232
▁agr	-8233
acak	-8234
presi	-8235
▁dipergunakan	-8236
▁kilometer	-8237
▁sedemikian	-8238
▁antusias	-8239
▁kasebut	-8240
▁membahayakan	-8241
tug	-8242
▁heb	-8243
emari	-8244
▁pangk	-8245
opsi	-8246
▁his	-8247
injau	-8248
angnya	-8249
▁ditim	-8250
▁manado	-8251
▁mengacu	-8252
▁//	-8253
zh	-8254
▁lapar	-8255
▁warisan	-8256
imum	-8257
ble	-8258
▁gener	-8259
▁kemiskinan	-8260
iterbitkan	-8261
▁boj	-8262
▁apel	-8263
apas	-8264
▁bios	-8265
ontr	-8266
▁berhad	-8267
▁kaskus	-8268
▁sensasi	-8269
▁jualan	-8270
eliti	-8271
▁dg	-8272
17	-8273
▁stop	-8274
▁mampir	-8275
▁berni	-8276
▁pertamina	-8277
omet	-8278
▁larva	-8279
▁menjanjikan	-8280
▁arth	-8281
mani	-8282
▁ibukota	-8283
via	-8284
▁memin	-8285
ating	-8286
▁tdk	-8287
▁hiv	-8288
▁vital	-8289
▁;.	-8290
▁mikir	-8291
▁asyik	-8292
▁babi	-8293
egoro	-8294
▁well	-8295
▁lainya	-8296
ania	-8297
ekul	-8298
▁lambang	-8299
▁menyatu	-8300
istis	-8301
▁jelek	-8302
▁phil	-8303
▁proc	-8304
▁pup	-8305
▁jema	-8306
▁usul	-8307
▁panonpoé	-8308
▁administr	-8309
▁rahmat	-8310
▁kerjanya	-8311
▁maskapai	-8312
▁melupakan	-8313
▁rab	-8314
▁verifikasi	-8315
hari	-8316
dian	-8317
▁keberuntungan	-8318
▁berawal	-8319
▁duwé	-8320
dah	-8321
▁nyawa	-8322
▁memotong	-8323
▁kemaluan	-8324
▁ubah	-8325
▁diman	-8326
▁ring	-8327
▁computer	-8328
▁balai	-8329
▁sumpah	-8330
astian	-8331
atangani	-8332
▁rindu	-8333
▁doc	-8334
▁aparat	-8335
▁indeks	-8336
ilingi	-8337
jaan	-8338
▁harusnya	-8339
▁lensa	-8340
▁900	-8341
▁ow	-8342
▁susun	-8343
buk	-8344
▁jne	-8345
▁alaih	-8346
▁maluku	-8347
▁menyuruh	-8348
▁pemec	-8349
▁1995	-8350
fan	-8351
otek	-8352
▁penyer	-8353
▁gedéna	-8354
▁garuda	-8355
▁resort	-8356
▁1996	-8357
agon	-8358
▁standard	-8359
▁arep	-8360
▁aug	-8361
▁mulus	-8362
▁nav	-8363
▁meunang	-8364
▁menonjol	-8365
▁langka	-8366
upai	-8367
umat	-8368
num	-8369
▁terhindar	-8370
▁bersem	-8371
▁berpotensi	-8372
sil	-8373
sor	-8374
▁penyebaran	-8375
rahim	-8376
▁mencuci	-8377
▁membicarakan	-8378
ahap	-8379
▁berupaya	-8380
▁bobot	-8381
▁diartikan	-8382
▁beragama	-8383
▁lemp	-8384
▁koloni	-8385
ebang	-8386
▁kacatet	-8387
▁cib	-8388
▁paw	-8389
▁intelek	-8390
▁ikhl	-8391
emuka	-8392
45	-8393
▁training	-8394
▁hirup	-8395
▁berkons	-8396
▁awan	-8397
▁pengembalian	-8398
▁tumor	-8399
uduh	-8400
▁lingkaran	-8401
reen	-8402
esuaian	-8403
agaman	-8404
amankan	-8405
▁mentah	-8406
▁diajarkan	-8407
▁melayu	-8408
inah	-8409
▁sob	-8410
▁diad	-8411
▁kalori	-8412
▁teror	-8413
▁exp	-8414
▁cadangan	-8415
▁nger	-8416
▁rancangan	-8417
▁permanen	-8418
▁qnc	-8419
▁atuh	-8420
▁saudi	-8421
ric	-8422
▁omb	-8423
▁hen	-8424
▁persib	-8425
▁denpasar	-8426
▁fan	-8427
▁acuan	-8428
▁persamaan	-8429
▁sho	-8430
▁penyelesaian	-8431
ucher	-8432
▁ekstra	-8433
▁klinik	-8434
roduksi	-8435
▁menempati	-8436
kesmas	-8437
▁tawarkan	-8438
▁puc	-8439
▁tanggapan	-8440
▁tiang	-8441
▁dilah	-8442
▁alkohol	-8443
▁banyu	-8444
▁kompas	-8445
▁berinter	-8446
▁lajêng	-8447
▁budget	-8448
▁zakat	-8449
▁rama	-8450
▁hias	-8451
▁peb	-8452
ancarkan	-8453
▁cah	-8454
lusif	-8455
▁berniat	-8456
▁mendidik	-8457
▁hubungannya	-8458
ukis	-8459
▁villa	-8460
ingi	-8461
▁pelap	-8462
▁mong	-8463
▁bara	-8464
ving	-8465
▁boneka	-8466
▁sebulan	-8467
▁sank	-8468
▁hambatan	-8469
▁réf	-8470
▁dimakan	-8471
▁fif	-8472
▁mind	-8473
▁gembira	-8474
▁sawit	-8475
▁keyboard	-8476
▁tenggoro	-8477
arangan	-8478
▁keram	-8479
udin	-8480
▁rw	-8481
▁urat	-8482
rus	-8483
▁seimbang	-8484
abaran	-8485
ès	-8486
▁pengikut	-8487
olo	-8488
▁jodoh	-8489
▁pembiayaan	-8490
ology	-8491
▁problem	-8492
▁kelen	-8493
▁kaku	-8494
▁mengolah	-8495
▁office	-8496
▁qq	-8497
▁lamaran	-8498
▁meyakinkan	-8499
che	-8500
▁konser	-8501
▁!"	-8502
▁kapten	-8503
▁mengontrol	-8504
ikmatan	-8505
▁jantan	-8506
▁perihal	-8507
▁kabentuk	-8508
▁hub	-8509
uasi	-8510
luas	-8511
▁dikasih	-8512
▁pekanbaru	-8513
▁nganjrek	-8514
▁larutan	-8515
▁objék	-8516
▁jt	-8517
êngg	-8518
▁tm	-8519
▁sejahter	-8520
▁boten	-8521
▁retur	-8522
▁direktor	-8523
▁mengag	-8524
▁melarang	-8525
▁singk	-8526
▁68	-8527
▁young	-8528
▁debu	-8529
▁dakwah	-8530
▁ditangani	-8531
▁plas	-8532
▁loro	-8533
▁style	-8534
▁cos	-8535
▁imun	-8536
▁install	-8537
ille	-8538
▁bertentangan	-8539
lamasi	-8540
ute	-8541
sy	-8542
▁mpo	-8543
▁tahunnya	-8544
▁tê	-8545
▁naj	-8546
▁dita	-8547
▁cacat	-8548
▁merilis	-8549
▁asian	-8550
▁ereksi	-8551
▁voucher	-8552
▁tingkatan	-8553
▁pedas	-8554
▁sopan	-8555
▁67	-8556
▁référén	-8557
▁mengklaim	-8558
▁basi	-8559
▁menggelar	-8560
abarkan	-8561
utamakan	-8562
▁ekstrak	-8563
▁menjalin	-8564
▁merencanakan	-8565
▁surakarta	-8566
▁berinteraksi	-8567
▁diluncurkan	-8568
▁hey	-8569
▁produknya	-8570
▁perawat	-8571
isikan	-8572
impah	-8573
▁relevan	-8574
ikum	-8575
▁paman	-8576
▁ds	-8577
ongkar	-8578
▁karbon	-8579
▁berkisar	-8580
uduki	-8581
▁bebek	-8582
▁perkataan	-8583
▁kelenjar	-8584
▁menghilang	-8585
▁bpjs	-8586
▁siaran	-8587
éntris	-8588
ega	-8589
▁metro	-8590
net	-8591
naf	-8592
▁keluaran	-8593
▁gerbang	-8594
▁ingsun	-8595
éntrisitas	-8596
▁ékséntrisitas	-8597
irannya	-8598
hoa	-8599
ehat	-8600
kl	-8601
▁référénsina	-8602
▁balita	-8603
▁mutlakna	-8604
▁].	-8605
▁diolah	-8606
▁mendaftarkan	-8607
itahuan	-8608
▁78	-8609
▁song	-8610
▁pori	-8611
▁ajak	-8612
tions	-8613
▁membuatku	-8614
▁memberitahu	-8615
▁isa	-8616
▁mengger	-8617
▁arsenal	-8618
dut	-8619
opedia	-8620
▁proy	-8621
▁serangga	-8622
▁telanjang	-8623
▁rental	-8624
▁disaat	-8625
▁bersalah	-8626
▁rincian	-8627
▁pengem	-8628
▁lini	-8629
cl	-8630
....	-8631
▁pertamanya	-8632
▁spot	-8633
▁loc	-8634
▁rohani	-8635
ianya	-8636
▁darurat	-8637
▁pks	-8638
infeksi	-8639
▁sharing	-8640
▁melu	-8641
▁dilansir	-8642
▁bagaimanapun	-8643
▁iblis	-8644
akaké	-8645
▁dalil	-8646
▁wikipedia	-8647
▁way	-8648
eph	-8649
▁beubeul	-8650
km	-8651
▁pendahuluan	-8652
▁nyieun	-8653
▁madura	-8654
▁pemberitahuan	-8655
▁kathah	-8656
▁ngobrol	-8657
▁sejahtera	-8658
▁beubeulahan	-8659
ahaha	-8660
etron	-8661
▁phot	-8662
▁manawi	-8663
▁kalér	-8664
▁bua	-8665
▁grafik	-8666
▁seekor	-8667
ching	-8668
▁meluncurkan	-8669
omas	-8670
aning	-8671
▁tos	-8672
▁bebentukan	-8673
▁planétisimal	-8674
▁pustaka	-8675
▁fos	-8676
▁125	-8677
▁membant	-8678
ette	-8679
okerto	-8680
▁menghadiri	-8681
▁merata	-8682
▁core	-8683
▁berhadapan	-8684
▁network	-8685
▁lumpur	-8686
▁ongkos	-8687
▁76	-8688
▁memancing	-8689
aluar	-8690
▁proposal	-8691
▁intens	-8692
▁pitu	-8693
▁siti	-8694
▁menghal	-8695
▁98	-8696
tig	-8697
▁tafs	-8698
▁jalannya	-8699
▁dsb	-8700
▁kerangka	-8701
play	-8702
▁cokelat	-8703
rom	-8704
ulit	-8705
▁pikirkan	-8706
▁pidato	-8707
▁manapun	-8708
▁belah	-8709
▁keters	-8710
▁west	-8711
▁dani	-8712
onegoro	-8713
iness	-8714
▁berbahan	-8715
▁sq	-8716
▁ngent	-8717
reasi	-8718
▁adu	-8719
▁landasan	-8720
▁terbakar	-8721
▁betina	-8722
▁lanjutan	-8723
▁php	-8724
eo	-8725
prov	-8726
▁jim	-8727
▁berolahraga	-8728
▁ganj	-8729
▁suplemen	-8730
▁rasio	-8731
ikmah	-8732
▁menum	-8733
▁indos	-8734
alt	-8735
▁hamp	-8736
▁school	-8737
▁kenikmatan	-8738
▁ikhlas	-8739
▁mengatas	-8740
▁komer	-8741
io	-8742
▁kediri	-8743
▁mitos	-8744
▁dhewek	-8745
▁kamus	-8746
▁malih	-8747
▁atasan	-8748
ashapus	-8749
wakan	-8750
▁diyak	-8751
▁bant	-8752
▁elec	-8753
kand	-8754
▁geor	-8755
▁menggel	-8756
▁sekelompok	-8757
▁terwujud	-8758
▁traf	-8759
▁kuant	-8760
▁rujukan	-8761
▁82	-8762
▁mempromosikan	-8763
▁presentasi	-8764
enta	-8765
▁bakso	-8766
▁123	-8767
▁awet	-8768
▁langg	-8769
▁batur	-8770
▁cafe	-8771
▁mid	-8772
▁wit	-8773
zon	-8774
▁samud	-8775
▁portug	-8776
▁wac	-8777
▁efisiensi	-8778
▁thanks	-8779
▁tenggorokan	-8780
▁dipl	-8781
▁iran	-8782
▁puskesmas	-8783
▁spiritual	-8784
▁care	-8785
▁sensitif	-8786
▁sendi	-8787
▁param	-8788
▁finan	-8789
▁konon	-8790
ocok	-8791
▁pertambangan	-8792
▁dipelajari	-8793
▁mengamati	-8794
▁jamaah	-8795
endi	-8796
▁musa	-8797
inggung	-8798
▁komik	-8799
▁logika	-8800
▁xx	-8801
▁sanksi	-8802
cc	-8803
▁golkar	-8804
▁naman	-8805
▁jg	-8806
aduan	-8807
▁pangkal	-8808
▁skr	-8809
▁hek	-8810
▁ts	-8811
▁biologi	-8812
▁offic	-8813
▁klasemen	-8814
▁tinggalkan	-8815
▁arif	-8816
▁kedepan	-8817
▁abadi	-8818
▁kesenian	-8819
itannya	-8820
ago	-8821
▁berlokasi	-8822
▁ungkapnya	-8823
▁raden	-8824
▁dibuktikan	-8825
▁sendirinya	-8826
▁namung	-8827
▁sanajan	-8828
▁bayangan	-8829
▁dituntut	-8830
▁comment	-8831
ujung	-8832
▁sendok	-8833
▁rilis	-8834
▁konstitusi	-8835
▁potensial	-8836
▁'.	-8837
▁menyewa	-8838
▁langkung	-8839
▁rm	-8840
▁muti	-8841
oka	-8842
sey	-8843
▁ungkapan	-8844
arinya	-8845
▁under	-8846
amuk	-8847
▁mengenali	-8848
▁balas	-8849
▁durung	-8850
▁pokoknya	-8851
▁mawar	-8852
▁porsi	-8853
▁pg	-8854
▁remp	-8855
▁kosmetik	-8856
▁periksa	-8857
▁milih	-8858
ebaskan	-8859
▁reservasi	-8860
iny	-8861
▁pembantu	-8862
▁arsip	-8863
▁alun	-8864
read	-8865
izinkan	-8866
idat	-8867
▁hut	-8868
▁paul	-8869
▁angkasa	-8870
▁dinikmati	-8871
▁kelainan	-8872
ektor	-8873
▁lup	-8874
nologi	-8875
enarkan	-8876
jemahkan	-8877
▁hikmah	-8878
▁berlibur	-8879
▁terkemuka	-8880
▁nad	-8881
▁nic	-8882
anjak	-8883
▁membac	-8884
▁arena	-8885
▁iri	-8886
▁jadilah	-8887
▁viet	-8888
otanya	-8889
aitkan	-8890
tive	-8891
riya	-8892
▁kreativitas	-8893
▁kandung	-8894
▁nep	-8895
ombong	-8896
ubur	-8897
▁oknum	-8898
▁sido	-8899
▁aid	-8900
▁alur	-8901
▁tangkas	-8902
▁laju	-8903
▁persepsi	-8904
▁''	-8905
▁dilahirkan	-8906
▁jejak	-8907
▁kerjakan	-8908
▁seniman	-8909
▁kabur	-8910
▁formula	-8911
▁nelayan	-8912
▁psikologis	-8913
ampau	-8914
antumkan	-8915
▁palest	-8916
▁dunya	-8917
▁haf	-8918
▁membela	-8919
bai	-8920
akn	-8921
▁chris	-8922
▁bernilai	-8923
▁alus	-8924
▁keterbatasan	-8925
atanya	-8926
▁reply	-8927
▁maksimum	-8928
yanto	-8929
▁driver	-8930
unculan	-8931
▁mengad	-8932
osp	-8933
▁ipa	-8934
kas	-8935
▁1992	-8936
▁like	-8937
lier	-8938
▁tegal	-8939
▁tahukah	-8940
roses	-8941
▁control	-8942
▁diselesaikan	-8943
▁ternama	-8944
wari	-8945
--------	-8946
▁berkes	-8947
▁modul	-8948
▁kapsul	-8949
▁garut	-8950
▁temuan	-8951
tarikan	-8952
▁memunc	-8953
▁ngak	-8954
▁finansial	-8955
ution	-8956
▁ikutan	-8957
uwun	-8958
zo	-8959
▁putusan	-8960
▁keagamaan	-8961
▁kehendak	-8962
▁menghambat	-8963
▁tn	-8964
ars	-8965
▁minimum	-8966
okake	-8967
ensinya	-8968
▁menara	-8969
▁umpan	-8970
▁tercapai	-8971
▁menyerupai	-8972
▁kepemil	-8973
dir	-8974
▁penangk	-8975
abol	-8976
pin	-8977
▁ekonomis	-8978
▁haid	-8979
▁chi	-8980
▁bima	-8981
▁bermasalah	-8982
▁diawali	-8983
urug	-8984
▁nggawe	-8985
alim	-8986
urs	-8987
▁yeah	-8988
▁tegangan	-8989
▁berputar	-8990
oki	-8991
▁filipina	-8992
gunakake	-8993
▁pendiri	-8994
▁hantu	-8995
▁dilaporkan	-8996
allahu	-8997
▁apresi	-8998
opo	-8999
aras	-9000
▁uh	-9001
▁shar	-9002
▁tangguh	-9003
▁mendapatkannya	-9004
▁ditolak	-9005
arani	-9006
▁handal	-9007
▁diturunkan	-9008
usiaan	-9009
▁tidaknya	-9010
▁banyuw	-9011
▁semenjak	-9012
▁menyed	-9013
ohid	-9014
▁roll	-9015
▁happy	-9016
▁drive	-9017
▁sinetron	-9018
▁lingkup	-9019
▁ukm	-9020
23	-9021
▁butir	-9022
▁parag	-9023
▁berpindah	-9024
▁teliti	-9025
▁aki	-9026
zim	-9027
▁lokasinya	-9028
entase	-9029
▁note	-9030
▁dekorasi	-9031
▁dlm	-9032
akannya	-9033
▁spek	-9034
▁tumrap	-9035
▁fleksi	-9036
efinis	-9037
▁dibiarkan	-9038
▁yu	-9039
▁trib	-9040
▁meman	-9041
▁mh	-9042
▁terinfeksi	-9043
▁tuntas	-9044
▁if	-9045
▁pemakai	-9046
aborasi	-9047
▁dideskripsikan	-9048
oten	-9049
▁bca	-9050
▁telp	-9051
▁mos	-9052
▁kepadamu	-9053
operasikan	-9054
▁plakat	-9055
wood	-9056
▁mengancam	-9057
▁membayangkan	-9058
ument	-9059
▁teluk	-9060
aper	-9061
▁1980	-9062
▁olahan	-9063
▁satelit	-9064
▁meningkatnya	-9065
▁keliling	-9066
▁depresi	-9067
▁fitri	-9068
▁upah	-9069
▁prosesor	-9070
▁subjek	-9071
▁abis	-9072
▁kafir	-9073
orth	-9074
▁saldo	-9075
▁disimp	-9076
esm	-9077
▁ketik	-9078
▁tongk	-9079
hit	-9080
rof	-9081
▁ibrahim	-9082
▁memohon	-9083
▁mendownload	-9084
ados	-9085
less	-9086
▁harapkan	-9087
▁widodo	-9088
▁alm	-9089
▁emosional	-9090
▁penerbit	-9091
▁mn	-9092
▁kewenangan	-9093
▁muj	-9094
▁import	-9095
▁pacaran	-9096
olok	-9097
enah	-9098
ontok	-9099
▁tato	-9100
▁sejalan	-9101
▁membakar	-9102
▁molekul	-9103
adaannya	-9104
▁ukurannya	-9105
▁dheweke	-9106
enger	-9107
▁nanya	-9108
unung	-9109
▁pered	-9110
orangan	-9111
efer	-9112
iker	-9113
isahan	-9114
▁dibidang	-9115
▁survey	-9116
▁buahan	-9117
low	-9118
ibah	-9119
▁kaisar	-9120
▁kingdom	-9121
▁perikan	-9122
awang	-9123
uke	-9124
▁bulanan	-9125
▁udang	-9126
▁ditunjukkan	-9127
▁89	-9128
▁indra	-9129
▁purn	-9130
▁benih	-9131
▁pulo	-9132
▁spesialis	-9133
▁percakapan	-9134
▁membatasi	-9135
▁tertinggal	-9136
▁perairan	-9137
▁sepakat	-9138
▁berkah	-9139
▁singa	-9140
▁mengarahkan	-9141
▁kepalanya	-9142
iaga	-9143
▁selang	-9144
ongkong	-9145
▁prima	-9146
▁benang	-9147
▁komersial	-9148
ompat	-9149
▁oge	-9150
ister	-9151
▁pedang	-9152
▁menyesal	-9153
optim	-9154
▁print	-9155
▁james	-9156
ustrasi	-9157
▁menempuh	-9158
▁eksk	-9159
▁fu	-9160
▁menyebarkan	-9161
▁untukmu	-9162
▁yeh	-9163
jok	-9164
mark	-9165
▁jung	-9166
▁banyuwangi	-9167
antampilkan	-9168
▁dibalik	-9169
▁mutiara	-9170
zan	-9171
▁74	-9172
▁aa	-9173
otivasi	-9174
itahukan	-9175
▁subs	-9176
▁terbarunya	-9177
▁eff	-9178
arengan	-9179
atalkan	-9180
ilannya	-9181
▁yun	-9182
▁persah	-9183
▁perikanan	-9184
arget	-9185
▁vok	-9186
▁contin	-9187
tn	-9188
▁86	-9189
ontoh	-9190
▁cint	-9191
▁bermakna	-9192
▁partisipasi	-9193
▁ulasantampilkan	-9194
▁project	-9195
▁domba	-9196
▁persegi	-9197
▁bias	-9198
▁kemas	-9199
▁hero	-9200
▁mix	-9201
▁refl	-9202
ingnya	-9203
▁girl	-9204
angkitkan	-9205
▁electr	-9206
▁brasil	-9207
udu	-9208
▁melepas	-9209
▁dhuwur	-9210
▁tsb	-9211
aro	-9212
▁pesisir	-9213
▁mengecek	-9214
ru	-9215
ugh	-9216
▁cond	-9217
▁mendatangi	-9218
▁benteng	-9219
▁menampung	-9220
▁euro	-9221
▁vic	-9222
umentasi	-9223
▁penempatan	-9224
▁betting	-9225
ebel	-9226
▁bni	-9227
▁indosat	-9228
▁memperbarui	-9229
▁rencananya	-9230
▁esok	-9231
hasil	-9232
▁ngap	-9233
▁dicoba	-9234
▁alaihi	-9235
▁tikus	-9236
▁paus	-9237
eser	-9238
▁melekat	-9239
▁pengisian	-9240
rok	-9241
▁buaya	-9242
▁pengembang	-9243
inggalan	-9244
iturut	-9245
▁kepend	-9246
▁temui	-9247
25	-9248
▁jang	-9249
▁prat	-9250
▁royal	-9251
▁rud	-9252
▁press	-9253
▁menaruh	-9254
▁ash	-9255
▁input	-9256
▁human	-9257
▁lit	-9258
faatkan	-9259
ukiman	-9260
onfir	-9261
bat	-9262
▁kumaha	-9263
▁dpt	-9264
▁mengup	-9265
▁gawang	-9266
▁haruslah	-9267
▁pompa	-9268
▁persahabatan	-9269
ventu	-9270
▁konferensi	-9271
umuskan	-9272
▁bengkel	-9273
▁lob	-9274
▁implementasi	-9275
▁tentukan	-9276
▁filter	-9277
▁lazim	-9278
▁diraih	-9279
elak	-9280
▁hitung	-9281
ohidrat	-9282
▁menanam	-9283
▁vietnam	-9284
▁kai	-9285
▁séj	-9286
yam	-9287
▁pengujian	-9288
▁lb	-9289
embab	-9290
▁pilihlah	-9291
▁audit	-9292
dam	-9293
▁diragukan	-9294
▁past	-9295
▁akhirat	-9296
▁pangkat	-9297
uhun	-9298
▁tokyo	-9299
kulasi	-9300
alth	-9301
anten	-9302
▁terendah	-9303
▁durasi	-9304
abumi	-9305
▁karier	-9306
iro	-9307
cal	-9308
uhu	-9309
osh	-9310
▁palestina	-9311
▁ketersediaan	-9312
▁fungsional	-9313
▁serang	-9314
▁asisten	-9315
▁bersiap	-9316
iana	-9317
▁hektar	-9318
▁eksekutif	-9319
▁kisaran	-9320
▁solusinya	-9321
▁ronal	-9322
▁mib	-9323
▁reproduksi	-9324
▁must	-9325
▁stock	-9326
sium	-9327
▁tend	-9328
▁keringat	-9329
▁polda	-9330
▁teri	-9331
▁muatan	-9332
▁kokoh	-9333
emon	-9334
▁menantang	-9335
ming	-9336
esik	-9337
▁berjanji	-9338
▁warnanya	-9339
▁terin	-9340
▁rantai	-9341
▁sains	-9342
▁nin	-9343
ugi	-9344
▁idul	-9345
editasi	-9346
mana	-9347
▁tiong	-9348
adat	-9349
▁diserahkan	-9350
▁memul	-9351
▁bawaan	-9352
▁ucapkan	-9353
▁merebut	-9354
▁berangg	-9355
▁modem	-9356
ogn	-9357
▁pisau	-9358
rot	-9359
▁memukul	-9360
▁spa	-9361
▁works	-9362
▁animal	-9363
▁md	-9364
itaan	-9365
▁mk	-9366
▁tugasnya	-9367
▁*:	-9368
▁tercinta	-9369
▁senilai	-9370
edh	-9371
▁kental	-9372
▁bercinta	-9373
▁diyakini	-9374
panjang	-9375
▁telek	-9376
otis	-9377
▁pelindung	-9378
▁tweet	-9379
▁seder	-9380
▁adonan	-9381
▁datar	-9382
▁dibedakan	-9383
liam	-9384
▁perlakuan	-9385
▁join	-9386
▁blue	-9387
iw	-9388
▁valid	-9389
▁dinamis	-9390
▁hitungan	-9391
ancam	-9392
▁bund	-9393
▁83	-9394
▁rada	-9395
▁pink	-9396
pn	-9397
▁nol	-9398
▁jadinya	-9399
▁diagn	-9400
▁jon	-9401
act	-9402
▁disitu	-9403
alinan	-9404
▁lebah	-9405
▁nduw	-9406
ehkan	-9407
▁piring	-9408
▁pelih	-9409
▁mudik	-9410
▁mencium	-9411
▁zo	-9412
ario	-9413
▁tanyakan	-9414
▁prabowo	-9415
▁kegunaan	-9416
▁coun	-9417
iranya	-9418
arna	-9419
▁karbohidrat	-9420
▁dominan	-9421
ete	-9422
▁public	-9423
▁konsultan	-9424
▁sial	-9425
over	-9426
ilet	-9427
▁terlengkap	-9428
edak	-9429
▁kê	-9430
èni	-9431
▁denganmu	-9432
takan	-9433
▁napas	-9434
▁kalender	-9435
▁kurir	-9436
▁telpon	-9437
▁disiapkan	-9438
▁ditarik	-9439
ott	-9440
▁dvd	-9441
▁rinci	-9442
▁rentan	-9443
▁ditunggu	-9444
▁wkwkw	-9445
▁menghormati	-9446
▁mengejutkan	-9447
▁ig	-9448
éd	-9449
▁kasur	-9450
efinisikan	-9451
▁ditempuh	-9452
▁kemanusiaan	-9453
▁menimp	-9454
▁marga	-9455
▁79	-9456
▁ion	-9457
▁jackpot	-9458
▁wahana	-9459
▁cend	-9460
untuk	-9461
▁upload	-9462
abung	-9463
▁drop	-9464
ias	-9465
▁97	-9466
▁chann	-9467
▁tex	-9468
▁menanggapi	-9469
ct	-9470
▁species	-9471
▁kontes	-9472
uting	-9473
▁asosiasi	-9474
king	-9475
▁menguji	-9476
▁nambah	-9477
▁enggan	-9478
▁hulu	-9479
enis	-9480
▁1993	-9481
ahulu	-9482
▁intelektual	-9483
elam	-9484
mah	-9485
berg	-9486
esaan	-9487
▁dipaké	-9488
▁180	-9489
▁series	-9490
▁lajeng	-9491
▁apresiasi	-9492
▁berkelanjutan	-9493
▁tulus	-9494
▁nip	-9495
▁kepemilikan	-9496
▁dipesan	-9497
abaikan	-9498
▁atl	-9499
▁miturut	-9500
▁uraian	-9501
▁seluas	-9502
▁opini	-9503
▁kayaknya	-9504
▁bukunya	-9505
▁bukal	-9506
▁bangkok	-9507
▁memutar	-9508
▁kawin	-9509
▁eduk	-9510
▁mega	-9511
▁berkali	-9512
▁bersumber	-9513
▁menembus	-9514
▁sajian	-9515
▁deskripsi	-9516
▁juventu	-9517
▁error	-9518
▁petual	-9519
ague	-9520
▁terluka	-9521
▁prak	-9522
uss	-9523
▁nilainya	-9524
▁bond	-9525
▁mengakhiri	-9526
▁cb	-9527
ulin	-9528
ukupi	-9529
▁mengusung	-9530
▁wol	-9531
lm	-9532
▁batuan	-9533
▁virtual	-9534
▁plu	-9535
▁ija	-9536
▁melangkah	-9537
▁sound	-9538
angkali	-9539
▁boot	-9540
▁polos	-9541
▁memerintahkan	-9542
▁hukumnya	-9543
▁krist	-9544
aksaan	-9545
▁identik	-9546
▁menunjuk	-9547
▁umroh	-9548
▁edit	-9549
▁rekor	-9550
▁juventus	-9551
▁imbang	-9552
▁kentang	-9553
masin	-9554
▁business	-9555
▁koordin	-9556
zu	-9557
▁surut	-9558
▁terba	-9559
▁terjemahan	-9560
▁dukung	-9561
▁host	-9562
▁meminum	-9563
▁religi	-9564
▁sambut	-9565
unduk	-9566
▁bukalapak	-9567
▁siswi	-9568
▁timbulnya	-9569
▁memindahkan	-9570
▁bath	-9571
▁bertahap	-9572
▁sarankan	-9573
anana	-9574
▁hatta	-9575
▁kreasi	-9576
▁stream	-9577
andia	-9578
▁partikel	-9579
▁url	-9580
▁membalas	-9581
▁jamu	-9582
▁séjén	-9583
▁sidoarjo	-9584
chen	-9585
otel	-9586
▁angs	-9587
▁rezeki	-9588
▁memeluk	-9589
▁wo	-9590
▁bengkulu	-9591
▁gang	-9592
▁sarang	-9593
pergian	-9594
▁macet	-9595
▁usahanya	-9596
**	-9597
▁berist	-9598
▁kuningan	-9599
▁kronis	-9600
▁té	-9601
▁dias	-9602
ebus	-9603
▁yung	-9604
▁penangg	-9605
▁kurun	-9606
▁sales	-9607
▁rasional	-9608
▁warni	-9609
▁mengawasi	-9610
ship	-9611
▁merayakan	-9612
▁quote	-9613
▁jumpa	-9614
entina	-9615
jian	-9616
▁ngun	-9617
▁alp	-9618
▁professional	-9619
▁kontol	-9620
bara	-9621
▁mustah	-9622
alamu	-9623
▁otoritas	-9624
▁%)	-9625
ontak	-9626
alisir	-9627
▁vel	-9628
▁wel	-9629
pad	-9630
▁pemkab	-9631
▁road	-9632
cr	-9633
▁panglima	-9634
▁management	-9635
▁output	-9636
▁sangk	-9637
▁boh	-9638
ipi	-9639
ness	-9640
atalan	-9641
ewaan	-9642
ublikasikan	-9643
▁hongkong	-9644
▁daw	-9645
▁nor	-9646
▁andr	-9647
ikalau	-9648
▁tersel	-9649
utut	-9650
▁tara	-9651
isnya	-9652
▁sesekali	-9653
▁tt	-9654
▁dijaga	-9655
▁ster	-9656
del	-9657
▁legal	-9658
▁berter	-9659
▁persalinan	-9660
▁sesaat	-9661
▁inisi	-9662
▁kanada	-9663
▁rh	-9664
▁muntah	-9665
wajibkan	-9666
hael	-9667
▁ven	-9668
▁template	-9669
▁bersemangat	-9670
▁menumbuhkan	-9671
▁cemas	-9672
▁legenda	-9673
box	-9674
▁cerpen	-9675
▁menduduki	-9676
▁sekilas	-9677
iq	-9678
▁bokep	-9679
inda	-9680
asarana	-9681
hing	-9682
▁diin	-9683
▁linux	-9684
▁banjarmasin	-9685
awati	-9686
▁ilah	-9687
▁karpet	-9688
▁biro	-9689
▁enc	-9690
ebet	-9691
▁jur	-9692
▁perbatasan	-9693
▁uud	-9694
ihad	-9695
▁suw	-9696
▁romawi	-9697
▁gmail	-9698
▁prev	-9699
▁bantal	-9700
▁ramalan	-9701
▁hunian	-9702
▁diaplikasikan	-9703
▁diperiksa	-9704
▁begitulah	-9705
▁segmen	-9706
▁sajikan	-9707
▁qiu	-9708
▁jikalau	-9709
▁189	-9710
▁telekom	-9711
▁kehormatan	-9712
pektif	-9713
▁bedanya	-9714
▁beristirahat	-9715
▁>>	-9716
▁188	-9717
▁berlebih	-9718
▁capsa	-9719
▁nature	-9720
▁yohan	-9721
▁manfaatkan	-9722
▁wahai	-9723
▁mingg	-9724
▁peternakan	-9725
▁just	-9726
▁buddha	-9727
▁kesal	-9728
▁ting	-9729
▁soeh	-9730
▁banda	-9731
▁jinis	-9732
erm	-9733
▁meletakkan	-9734
▁kemampuannya	-9735
▁islami	-9736
▁tunj	-9737
▁auto	-9738
▁factor	-9739
alem	-9740
▁hakikat	-9741
isal	-9742
▁letaknya	-9743
▁bk	-9744
▁cut	-9745
▁toilet	-9746
eller	-9747
▁lisan	-9748
uble	-9749
▁cuman	-9750
▁deleng	-9751
▁peradangan	-9752
▁bepergian	-9753
ilasi	-9754
▁benci	-9755
▁andi	-9756
▁respond	-9757
▁sedap	-9758
éwé	-9759
bl	-9760
▁1991	-9761
onic	-9762
alangan	-9763
jat	-9764
▁pran	-9765
▁berpuasa	-9766
▁tafsir	-9767
▁sambutan	-9768
▁liber	-9769
estik	-9770
▁pendirian	-9771
▁ono	-9772
▁jaw	-9773
▁penentuan	-9774
ism	-9775
▁nir	-9776
venir	-9777
uty	-9778
▁sby	-9779
▁celah	-9780
▁melarikan	-9781
▁demo	-9782
▁karawang	-9783
▁birok	-9784
▁sambung	-9785
hé	-9786
▁wira	-9787
▁first	-9788
▁luw	-9789
▁pengl	-9790
▁ler	-9791
ulator	-9792
▁nuwun	-9793
ovo	-9794
▁puk	-9795
▁tawar	-9796
▁ata	-9797
▁merujuk	-9798
akunya	-9799
▁gé	-9800
▁pung	-9801
asti	-9802
▁merangsang	-9803
bangkan	-9804
▁william	-9805
▁jet	-9806
▁prasarana	-9807
▁vaks	-9808
▁mengerikan	-9809
▁kembar	-9810
anaman	-9811
onim	-9812
▁pembatalan	-9813
▁rekrut	-9814
entak	-9815
▁lelang	-9816
▁merangk	-9817
▁pelayan	-9818
▁terjebak	-9819
▁hayang	-9820
▁merc	-9821
▁hadapi	-9822
▁independen	-9823
▁ijazah	-9824
▁sukai	-9825
▁channel	-9826
▁kandidat	-9827
▁alf	-9828
ds	-9829
▁temper	-9830
▁gemuk	-9831
▁pertarungan	-9832
ruh	-9833
▁neb	-9834
▁ekspresi	-9835
▁pertolongan	-9836
ibadah	-9837
▁menelan	-9838
▁sate	-9839
▁diperbolehkan	-9840
▁kesayangan	-9841
▁muslimah	-9842
▁inci	-9843
▁oil	-9844
▁gra	-9845
▁sebutkan	-9846
ejarah	-9847
▁balap	-9848
▁direncanakan	-9849
grade	-9850
▁tarian	-9851
▁gard	-9852
▁tunjangan	-9853
▁hiasan	-9854
hlak	-9855
▁pesaing	-9856
▁south	-9857
usuk	-9858
▁pujian	-9859
▁pemul	-9860
▁ann	-9861
▁kakinya	-9862
▁rich	-9863
▁tuwin	-9864
▁keangg	-9865
▁sakab	-9866
▁abg	-9867
▁dicampur	-9868
▁loading	-9869
▁kuala	-9870
▁sung	-9871
▁amanah	-9872
▁sponsor	-9873
▁kejuaraan	-9874
elapan	-9875
▁mengun	-9876
▁vend	-9877
▁kyai	-9878
▁balapan	-9879
▁ditinggalkan	-9880
▁larut	-9881
▁oppo	-9882
cang	-9883
▁ios	-9884
▁tukar	-9885
▁staff	-9886
link	-9887
▁pemberdayaan	-9888
▁hap	-9889
▁magnet	-9890
pd	-9891
▁sawet	-9892
ym	-9893
esaran	-9894
▁seharga	-9895
▁ditunjuk	-9896
igrasi	-9897
▁photo	-9898
▁tro	-9899
▁kene	-9900
atuhkan	-9901
▁lautan	-9902
aksikan	-9903
bub	-9904
▁finish	-9905
▁lengkapnya	-9906
▁menggi	-9907
ido	-9908
▁seumur	-9909
▁semest	-9910
▁wangi	-9911
▁amar	-9912
▁lisensi	-9913
▁awam	-9914
▁ringk	-9915
▁rempah	-9916
argetkan	-9917
abolisme	-9918
▁menggabungkan	-9919
▁anug	-9920
▁satunggal	-9921
den	-9922
▁tiasa	-9923
▁kunjung	-9924
▁zen	-9925
▁imah	-9926
▁kurasa	-9927
▁dorongan	-9928
▁rint	-9929
▁berba	-9930
▁moal	-9931
▁senam	-9932
▁oli	-9933
▁bubuk	-9934
▁96	-9935
▁memisahkan	-9936
▁menstr	-9937
resif	-9938
▁phone	-9939
▁tercantum	-9940
▁93	-9941
▁legisl	-9942
▁ideologi	-9943
▁bilih	-9944
enderungan	-9945
bud	-9946
▁friend	-9947
▁rew	-9948
▁lic	-9949
▁dikuasai	-9950
▁sisanya	-9951
▁ego	-9952
olakan	-9953
▁payung	-9954
▁ndh	-9955
gawé	-9956
oyo	-9957
▁belahan	-9958
▁mengira	-9959
eme	-9960
ucap	-9961
▁silatur	-9962
▁sejuk	-9963
▁ilegal	-9964
edo	-9965
▁lha	-9966
▁porno	-9967
▁now	-9968
alaya	-9969
utik	-9970
ulur	-9971
▁domestik	-9972
round	-9973
▁ace	-9974
iné	-9975
▁nuansa	-9976
▁duta	-9977
oord	-9978
▁kabèh	-9979
▁teguh	-9980
▁atasnya	-9981
▁mual	-9982
▁mustahil	-9983
rang	-9984
▁kacamata	-9985
▁paulus	-9986
▁dijumpai	-9987
▁hormat	-9988
▁miliknya	-9989
▁energ	-9990
▁wacana	-9991
77	-9992
cover	-9993
ebatan	-9994
uluy	-9995
▁salaku	-9996
▁analog	-9997
▁84	-9998
eransi	-9999
abda	-10000
▁nyaris	-10001
arakat	-10002
hip	-10003
▁track	-10004
bulkan	-10005
▁ui	-10006
▁gairah	-10007
▁work	-10008
▁paras	-10009
cha	-10010
▁commun	-10011
▁pemprov	-10012
rain	-10013
▁bakalan	-10014
▁lamb	-10015
▁tud	-10016
▁?,	-10017
teriak	-10018
▁lega	-10019
▁anggotanya	-10020
▁wulan	-10021
ankan	-10022
▁kiamat	-10023
▁sejenak	-10024
perimen	-10025
▁markas	-10026
▁radang	-10027
▁seluruhnya	-10028
▁sci	-10029
▁topi	-10030
ollo	-10031
▁meriah	-10032
▁pengantar	-10033
▁dulunya	-10034
empurnaan	-10035
etahu	-10036
▁lead	-10037
▁august	-10038
▁tionghoa	-10039
▁tenggelam	-10040
▁lad	-10041
▁diukur	-10042
▁bersatu	-10043
▁milyar	-10044
▁muslimin	-10045
▁pre	-10046
▁lembaran	-10047
arning	-10048
▁opo	-10049
onfirmasi	-10050
▁pengas	-10051
▁legend	-10052
▁how	-10053
ward	-10054
▁kesana	-10055
▁distrik	-10056
lay	-10057
▁instruksi	-10058
▁semestinya	-10059
▁berteriak	-10060
▁""	-10061
▁perf	-10062
▁keperawatan	-10063
▁penggunanya	-10064
▁java	-10065
▁021	-10066
▁produktivitas	-10067
▁fund	-10068
▁pamar	-10069
▁telapak	-10070
▁ketahanan	-10071
sak	-10072
▁bangku	-10073
iranti	-10074
yos	-10075
yani	-10076
▁white	-10077
▁serangk	-10078
▁amalan	-10079
▁pesona	-10080
lir	-10081
▁sekiranya	-10082
▁shall	-10083
▁usianya	-10084
▁konveksi	-10085
▁next	-10086
baya	-10087
▁fair	-10088
▁airnya	-10089
▁jawi	-10090
▁barangkali	-10091
▁soeharto	-10092
▁kecenderungan	-10093
andar	-10094
▁sukabumi	-10095
▁berkend	-10096
▁aduk	-10097
▁silam	-10098
▁keset	-10099
▁fresh	-10100
▁cop	-10101
▁bill	-10102
▁menghibur	-10103
▁nyari	-10104
▁abdullah	-10105
stall	-10106
▁jud	-10107
fie	-10108
itatif	-10109
▁elektron	-10110
▁terikat	-10111
▁terbanyak	-10112
▁tercipta	-10113
▁adh	-10114
▁berjualan	-10115
▁menump	-10116
▁lest	-10117
▁kesenangan	-10118
aph	-10119
kala	-10120
▁tinta	-10121
▁cai	-10122
▁terhitung	-10123
▁font	-10124
rani	-10125
▁basket	-10126
▁menyingk	-10127
▁jarum	-10128
▁hk	-10129
▁mons	-10130
▁katon	-10131
▁mendasar	-10132
▁sembarangan	-10133
▁dipisahkan	-10134
▁klasi	-10135
▁memaksimalkan	-10136
▁rektor	-10137
▁ips	-10138
▁mess	-10139
▁1970	-10140
▁menghidup	-10141
▁berdaya	-10142
▁ks	-10143
▁right	-10144
evaluasi	-10145
▁jahe	-10146
▁bensin	-10147
▁kerabat	-10148
▁lanang	-10149
▁permen	-10150
▁kesed	-10151
ican	-10152
▁anjeunna	-10153
▁mengeluh	-10154
▁masuknya	-10155
▁usulan	-10156
▁tertera	-10157
▁eb	-10158
▁mayat	-10159
▁code	-10160
▁spr	-10161
▁diatasi	-10162
▁sarung	-10163
usul	-10164
▁filum	-10165
▁ungu	-10166
▁class	-10167
▁lutut	-10168
▁diumumkan	-10169
▁110	-10170
▁hama	-10171
▁demokrat	-10172
▁gent	-10173
▁dibersihkan	-10174
▁maklum	-10175
▁nun	-10176
enuhan	-10177
▁integr	-10178
oph	-10179
▁bersah	-10180
▁yup	-10181
▁light	-10182
▁yohanes	-10183
▁regional	-10184
▁company	-10185
▁ais	-10186
impunan	-10187
▁national	-10188
▁gadhah	-10189
ilm	-10190
▁vert	-10191
isih	-10192
▁meles	-10193
syat	-10194
▁semalt	-10195
▁ling	-10196
▁pembesar	-10197
▁**	-10198
▁sou	-10199
▁mengaplikasikan	-10200
gh	-10201
tick	-10202
▁tay	-10203
▁debut	-10204
▁ff	-10205
▁ditingkatkan	-10206
▁mendesak	-10207
epannya	-10208
was	-10209
▁daratan	-10210
▁durian	-10211
▁sawetara	-10212
▁dihindari	-10213
▁betah	-10214
▁ping	-10215
engerti	-10216
▁benua	-10217
▁ngentot	-10218
yaw	-10219
▁gonore	-10220
jakarta	-10221
▁mempers	-10222
▁cacing	-10223
▁timnya	-10224
▁ingatan	-10225
▁league	-10226
▁dinasti	-10227
▁beach	-10228
▁action	-10229
▁berkh	-10230
▁pecahan	-10231
▁bertempat	-10232
▁dy	-10233
▁berprestasi	-10234
▁manuf	-10235
bon	-10236
esian	-10237
érangan	-10238
ves	-10239
▁rék	-10240
awon	-10241
▁kedah	-10242
▁hatiku	-10243
entif	-10244
▁nampaknya	-10245
▁mengor	-10246
▁ey	-10247
orsi	-10248
▁diare	-10249
inten	-10250
▁ceuk	-10251
▁folder	-10252
35	-10253
▁suriah	-10254
▁kuku	-10255
▁bening	-10256
▁bersabda	-10257
▁ly	-10258
▁sepat	-10259
▁caba	-10260
daul	-10261
▁apotik	-10262
▁keluarkan	-10263
▁kawat	-10264
▁sorangan	-10265
tek	-10266
▁kekebalan	-10267
urangi	-10268
banyak	-10269
▁memperluas	-10270
▁hahahahah	-10271
▁kualitasnya	-10272
▁laun	-10273
▁helm	-10274
▁dipotong	-10275
aktur	-10276
aling	-10277
▁tomat	-10278
▁antibi	-10279
▁berser	-10280
tanya	-10281
▁kesabaran	-10282
ril	-10283
zar	-10284
book	-10285
▁bahu	-10286
▁ribet	-10287
▁feb	-10288
▁fut	-10289
▁tersembunyi	-10290
▁gamis	-10291
▁geg	-10292
▁orgas	-10293
▁didesain	-10294
▁ditak	-10295
▁digambarkan	-10296
anggungjawab	-10297
▁penanaman	-10298
▁batak	-10299
ebor	-10300
▁responden	-10301
▁maafkan	-10302
▁said	-10303
▁hob	-10304
yung	-10305
▁pemr	-10306
▁pemut	-10307
amer	-10308
▁bekal	-10309
▁penyelidikan	-10310
▁filem	-10311
akti	-10312
esel	-10313
▁ditum	-10314
▁paragraf	-10315
▁dilakukannya	-10316
▁sajer	-10317
▁drum	-10318
▁mpr	-10319
▁penghuni	-10320
▁mui	-10321
▁pengangg	-10322
▁komite	-10323
▁berkarya	-10324
endang	-10325
▁dataran	-10326
▁dual	-10327
▁gresik	-10328
inipun	-10329
▁kaitannya	-10330
▁fotografi	-10331
▁ditebang	-10332
▁disekitar	-10333
▁jasmani	-10334
▁teka	-10335
▁ongkir	-10336
▁terpadu	-10337
▁michael	-10338
▁eksim	-10339
▁vendor	-10340
▁penguasaan	-10341
▁beng	-10342
iler	-10343
▁asas	-10344
▁mengantisipasi	-10345
ited	-10346
gai	-10347
▁process	-10348
plorasi	-10349
disk	-10350
▁teroris	-10351
▁sky	-10352
▁jember	-10353
itraan	-10354
▁mengabaikan	-10355
▁pemberi	-10356
▁laris	-10357
▁cengk	-10358
▁image	-10359
▁tahanan	-10360
eto	-10361
▁malem	-10362
▁apbd	-10363
▁bun	-10364
▁nem	-10365
▁realitas	-10366
▁berakibat	-10367
▁diken	-10368
aparan	-10369
▁komplikasi	-10370
emaran	-10371
isap	-10372
▁gugur	-10373
24	-10374
wijaya	-10375
▁jabar	-10376
▁who	-10377
▁duka	-10378
usat	-10379
zza	-10380
▁87	-10381
▁piranti	-10382
▁dirasa	-10383
▁diungkapkan	-10384
▁record	-10385
▁[...]	-10386
▁berjarak	-10387
hiasan	-10388
onesia	-10389
▁menstruasi	-10390
▁ae	-10391
▁kebing	-10392
▁asumsi	-10393
▁armada	-10394
▁ditengah	-10395
▁anakku	-10396
▁alangkah	-10397
▁ngisor	-10398
▁perw	-10399
▁carita	-10400
▁bangka	-10401
▁adsense	-10402
▁keberanian	-10403
for	-10404
ilat	-10405
▁menyebutnya	-10406
▁trade	-10407
▁menyeluruh	-10408
▁its	-10409
etas	-10410
▁pahala	-10411
angsaan	-10412
adh	-10413
▁ganteng	-10414
jualnya	-10415
▁tanduk	-10416
anyikan	-10417
▁kontraktor	-10418
▁tani	-10419
▁pijat	-10420
hitungkan	-10421
▁ikon	-10422
▁musisi	-10423
▁orangnya	-10424
▁mempercaya	-10425
▁peninggalan	-10426
▁apollo	-10427
ild	-10428
▁gedhe	-10429
▁tala	-10430
▁pejuang	-10431
▁lihatlah	-10432
antas	-10433
▁salat	-10434
imah	-10435
▁galau	-10436
ibatan	-10437
▁,...	-10438
▁metal	-10439
▁madi	-10440
injam	-10441
▁persediaan	-10442
▁imbuh	-10443
▁paha	-10444
endaki	-10445
▁aji	-10446
▁bic	-10447
▁tama	-10448
eget	-10449
▁poly	-10450
▁workshop	-10451
▁universal	-10452
▁penglihatan	-10453
yut	-10454
▁menemani	-10455
▁layang	-10456
▁sepasang	-10457
▁tambahnya	-10458
▁nge	-10459
osistem	-10460
▁pama	-10461
▁tegak	-10462
▁bertarung	-10463
▁rit	-10464
ecta	-10465
▁sale	-10466
▁pengajar	-10467
▁perhiasan	-10468
▁curi	-10469
▁honorer	-10470
▁menaikkan	-10471
▁disimpulkan	-10472
▁sagala	-10473
▁room	-10474
▁asalkan	-10475
▁inov	-10476
▁cepet	-10477
▁jug	-10478
onstr	-10479
enggam	-10480
▁found	-10481
▁pinggang	-10482
▁simpel	-10483
▁cabai	-10484
▁dikaitkan	-10485
▁indikasi	-10486
ope	-10487
▁menyusul	-10488
▁tagihan	-10489
▁pembakaran	-10490
▁progr	-10491
▁wewenang	-10492
▁gran	-10493
▁transmisi	-10494
▁kabarnya	-10495
▁berbau	-10496
▁manusa	-10497
▁tonton	-10498
▁macem	-10499
▁stim	-10500
amanannya	-10501
▁terpenuhi	-10502
▁diarah	-10503
▁harry	-10504
▁guys	-10505
▁lembab	-10506
▁hipot	-10507
▁teater	-10508
▁penggunaannya	-10509
▁penderitaan	-10510
adukan	-10511
▁muara	-10512
▁observasi	-10513
▁menyimpulkan	-10514
▁double	-10515
▁desk	-10516
▁kunc	-10517
▁thomas	-10518
▁kawula	-10519
▁metabolisme	-10520
▁che	-10521
▁will	-10522
asaannya	-10523
▁palu	-10524
▁klasifikasi	-10525
imanya	-10526
ruk	-10527
▁moder	-10528
▁animalia	-10529
▁pekerjaannya	-10530
▁sekunder	-10531
▁rot	-10532
▁keanggotaan	-10533
▁melemp	-10534
▁jemaat	-10535
▁jero	-10536
▁keunikan	-10537
▁mengikat	-10538
▁balasan	-10539
▁bijaksana	-10540
▁titan	-10541
▁kebingungan	-10542
▁lintang	-10543
▁akbar	-10544
▁semalam	-10545
▁alis	-10546
sk	-10547
▁olimpi	-10548
▁alq	-10549
hers	-10550
▁nunggu	-10551
▁berin	-10552
▁kalih	-10553
▁orde	-10554
▁sebatas	-10555
▁shir	-10556
▁...,	-10557
tuhan	-10558
▁komoditas	-10559
▁dihapus	-10560
etis	-10561
▁cook	-10562
▁petir	-10563
eae	-10564
vas	-10565
▁uap	-10566
vers	-10567
▁mood	-10568
▁kesibukan	-10569
▁andre	-10570
▁mangkono	-10571
ungkiri	-10572
▁membangkitkan	-10573
▁sajeroning	-10574
▁sisih	-10575
▁lian	-10576
▁pembalap	-10577
▁have	-10578
▁revisi	-10579
▁organisme	-10580
▁english	-10581
▁duh	-10582
▁misalkan	-10583
▁jpg	-10584
▁berkep	-10585
▁singapore	-10586
▁sakti	-10587
▁nagari	-10588
▁sdh	-10589
▁wash	-10590
▁bubur	-10591
gunakeun	-10592
ajian	-10593
▁kejutan	-10594
▁penger	-10595
▁sentral	-10596
▁bros	-10597
▁zi	-10598
▁menjadikannya	-10599
▁result	-10600
▁june	-10601
ihak	-10602
▁eun	-10603
edah	-10604
▁kemar	-10605
▁kiat	-10606
▁menggali	-10607
▁payah	-10608
▁adakah	-10609
▁nyamuk	-10610
▁dibatasi	-10611
gawa	-10612
rong	-10613
▁etnis	-10614
▁peredaran	-10615
▁berbisnis	-10616
▁robert	-10617
▁dibuang	-10618
▁berad	-10619
embak	-10620
▁trim	-10621
istrib	-10622
▁humas	-10623
minkan	-10624
▁frank	-10625
▁antioks	-10626
asy	-10627
▁ranjang	-10628
▁sopir	-10629
▁bertum	-10630
▁dahsyat	-10631
▁pelamar	-10632
▁enzim	-10633
▁serangkaian	-10634
▁tokopedia	-10635
▁medali	-10636
▁rekrutmen	-10637
▁ayolah	-10638
▁sekeliling	-10639
▁dibagikan	-10640
▁yoga	-10641
▁disuruh	-10642
▁pendeta	-10643
▁beraneka	-10644
ajah	-10645
ais	-10646
▁dimilikinya	-10647
▁membawanya	-10648
▁vagin	-10649
▁karim	-10650
▁pany	-10651
▁sala	-10652
▁anang	-10653
▁posted	-10654
▁mangan	-10655
▁1989	-10656
▁terdakwa	-10657
▁cim	-10658
▁ade	-10659
▁taiwan	-10660
▁dpd	-10661
▁lanjutkan	-10662
opuler	-10663
▁abi	-10664
▁asuhan	-10665
pir	-10666
▁obl	-10667
▁block	-10668
▁inflasi	-10669
▁adip	-10670
▁singg	-10671
▁diperkenalkan	-10672
▁wang	-10673
▁mengemukakan	-10674
▁berkendara	-10675
▁punapa	-10676
▁perolehan	-10677
oho	-10678
list	-10679
hong	-10680
eksa	-10681
▁kebangk	-10682
33	-10683
papan	-10684
▁posisinya	-10685
▁meyakini	-10686
aparkan	-10687
▁fem	-10688
▁kuil	-10689
vie	-10690
▁seluler	-10691
▁junior	-10692
21	-10693
old	-10694
▁jersey	-10695
▁alokasi	-10696
▁dicatat	-10697
▁jago	-10698
▁ketu	-10699
▁fraksi	-10700
▁menguatkan	-10701
▁menip	-10702
▁untungnya	-10703
▁pla	-10704
▁resid	-10705
▁nbsp	-10706
▁bioskop	-10707
enci	-10708
▁pemda	-10709
hawatirkan	-10710
▁capek	-10711
▁about	-10712
▁pemainnya	-10713
▁cermin	-10714
amis	-10715
anamkan	-10716
▁tropis	-10717
▁amér	-10718
▁https	-10719
iliasi	-10720
▁menyala	-10721
▁pembawa	-10722
▁diperbaiki	-10723
▁mengantarkan	-10724
▁pembuka	-10725
▁darinya	-10726
▁tempuh	-10727
29	-10728
▁arthrop	-10729
▁ronaldo	-10730
▁olimpiade	-10731
▁mengatasinya	-10732
▁kompetitif	-10733
▁diproses	-10734
▁penyesuaian	-10735
▁badannya	-10736
ature	-10737
ané	-10738
▁beribadah	-10739
unipun	-10740
▁gin	-10741
▁pembunuh	-10742
emasan	-10743
▁dalan	-10744
▁diameter	-10745
dem	-10746
▁,.	-10747
▁ditimbulkan	-10748
▁radikal	-10749
▁memunculkan	-10750
▁kapit	-10751
▁kubu	-10752
▁maca	-10753
ambungan	-10754
▁ria	-10755
▁supplier	-10756
ografis	-10757
▁tadinya	-10758
embahan	-10759
▁mugi	-10760
▁mengaktif	-10761
▁lenovo	-10762
▁menawan	-10763
▁arthropoda	-10764
▁geng	-10765
fum	-10766
▁mengebor	-10767
▁tebing	-10768
▁sirkulasi	-10769
▁sos	-10770
▁kemari	-10771
sen	-10772
▁terkec	-10773
bag	-10774
▁dalem	-10775
▁berkuasa	-10776
▁asm	-10777
▁ted	-10778
▁souvenir	-10779
▁kanak	-10780
▁perspektif	-10781
atika	-10782
▁naha	-10783
▁keuntungannya	-10784
▁..?	-10785
▁yat	-10786
ipang	-10787
▁kuman	-10788
▁texas	-10789
▁asean	-10790
▁dhateng	-10791
▁nominal	-10792
ograman	-10793
asat	-10794
▁transparan	-10795
▁trag	-10796
etahuinya	-10797
oe	-10798
▁jeb	-10799
▁omong	-10800
▁keberatan	-10801
▁corpor	-10802
▁........	-10803
▁soo	-10804
▁wer	-10805
▁maranéh	-10806
angannya	-10807
▁datangnya	-10808
▁ilustrasi	-10809
▁asri	-10810
▁kelengkapan	-10811
orb	-10812
▁paku	-10813
▁fun	-10814
▁excel	-10815
van	-10816
▁eksklusif	-10817
▁nuklir	-10818
▁break	-10819
yarat	-10820
enap	-10821
▁perundang	-10822
▁kaidah	-10823
▁tatan	-10824
ukeun	-10825
▁week	-10826
▁sman	-10827
▁ple	-10828
▁128	-10829
▁cermat	-10830
▁bidan	-10831
akaian	-10832
▁kelinci	-10833
▁voc	-10834
jajah	-10835
ingati	-10836
▁skema	-10837
epakati	-10838
▁suaranya	-10839
ajin	-10840
▁ilm	-10841
▁perga	-10842
atuh	-10843
▁lemon	-10844
▁root	-10845
rati	-10846
▁dna	-10847
▁cul	-10848
▁dongeng	-10849
hhh	-10850
▁pelunc	-10851
▁balan	-10852
▁mawa	-10853
▁lembah	-10854
▁editor	-10855
▁mint	-10856
▁pengumpulan	-10857
▁musibah	-10858
▁menentang	-10859
ikl	-10860
husus	-10861
▁count	-10862
▁turis	-10863
▁pembaruan	-10864
▁takdir	-10865
▁woo	-10866
ianto	-10867
▁menerangkan	-10868
▁seger	-10869
▁sutrad	-10870
▁kasihan	-10871
▁utusan	-10872
ancy	-10873
▁tuturnya	-10874
▁pemad	-10875
▁sê	-10876
▁menembak	-10877
▁dc	-10878
▁kartun	-10879
▁jong	-10880
▁herpes	-10881
▁som	-10882
▁160	-10883
▁habib	-10884
▁mencob	-10885
uning	-10886
▁menimpa	-10887
▁hipertensi	-10888
▁techn	-10889
▁béda	-10890
▁tiens	-10891
ogi	-10892
ou	-10893
▁balikpapan	-10894
▁hadirnya	-10895
▁magelang	-10896
▁pertaruhan	-10897
▁dhar	-10898
▁rentang	-10899
▁mulailah	-10900
▁bisakah	-10901
28	-10902
▁sij	-10903
▁pemot	-10904
enalan	-10905
▁ekosistem	-10906
====	-10907
▁daud	-10908
▁hindia	-10909
syah	-10910
asilitasi	-10911
▁kedepannya	-10912
inho	-10913
▁karyanya	-10914
▁membuatmu	-10915
_-	-10916
▁argentina	-10917
▁bersihkan	-10918
urian	-10919
▁benarkah	-10920
▁aids	-10921
ymp	-10922
gantian	-10923
▁slam	-10924
▁penal	-10925
egangan	-10926
ahmi	-10927
▁tayang	-10928
▁zait	-10929
integrasi	-10930
▁dirawat	-10931
itus	-10932
▁atmos	-10933
▁dendam	-10934
▁)&	-10935
▁antioksidan	-10936
▁konseling	-10937
▁didi	-10938
▁pahit	-10939
▁develop	-10940
▁nyaeta	-10941
lor	-10942
▁rpp	-10943
eup	-10944
▁miring	-10945
▁agresif	-10946
▁berwisata	-10947
▁dibunuh	-10948
▁dilap	-10949
▁lou	-10950
▁sanggeus	-10951
▁streaming	-10952
▁dibagian	-10953
▁sacara	-10954
▁perlawanan	-10955
▁cakap	-10956
▁kanggé	-10957
▁wadon	-10958
▁nget	-10959
▁heheh	-10960
▁intensitas	-10961
▁prom	-10962
pura	-10963
▁tergabung	-10964
▁aktris	-10965
onel	-10966
antap	-10967
▁ibarat	-10968
antungan	-10969
▁jalankan	-10970
buan	-10971
▁bertanding	-10972
èt	-10973
▁portal	-10974
sari	-10975
iday	-10976
▁njal	-10977
▁insecta	-10978
▁yas	-10979
▁pelangsing	-10980
▁menandakan	-10981
000	-10982
led	-10983
▁ditahan	-10984
hut	-10985
intis	-10986
▁rand	-10987
▁diag	-10988
▁bermaksud	-10989
▁pinter	-10990
wana	-10991
▁pundi	-10992
▁diund	-10993
▁street	-10994
▁buatlah	-10995
▁parlemen	-10996
▁bpom	-10997
▁beh	-10998
▁memak	-10999
▁mbok	-11000
▁ceramb	-11001
▁dimanapun	-11002
▁telekomunikasi	-11003
▁monster	-11004
▁sdn	-11005
uwa	-11006
▁ustadz	-11007
▁kendali	-11008
▁sunt	-11009
▁cerambyc	-11010
▁nangis	-11011
▁color	-11012
mentasi	-11013
▁merekam	-11014
▁cerambycidae	-11015
antar	-11016
▁sembari	-11017
▁mencerminkan	-11018
▁digemari	-11019
ova	-11020
▁daft	-11021
▁taat	-11022
▁bengkak	-11023
▁kepastian	-11024
ugat	-11025
ree	-11026
▁lanjutnya	-11027
▁fiq	-11028
ihatsu	-11029
▁pud	-11030
entifikasi	-11031
▁persentase	-11032
▁mencinta	-11033
ipat	-11034
▁giliran	-11035
ington	-11036
▁mts	-11037
▁product	-11038
▁perdamaian	-11039
▁koin	-11040
du	-11041
▁memantau	-11042
▁ageng	-11043
ayasa	-11044
▁71	-11045
▁tasikm	-11046
▁pengerjaan	-11047
▁diakibatkan	-11048
▁lcd	-11049
▁kultur	-11050
▁sanad	-11051
▁khan	-11052
▁kalsium	-11053
▁haw	-11054
▁bermula	-11055
▁banding	-11056
▁diand	-11057
▁peper	-11058
▁nab	-11059
▁american	-11060
formasi	-11061
▁ngam	-11062
▁menyakitkan	-11063
tianak	-11064
▁pergantian	-11065
egaraan	-11066
▁penangkapan	-11067
▁penyal	-11068
▁ditekan	-11069
▁direktorat	-11070
ilik	-11071
▁kontras	-11072
▁dieks	-11073
▁kesep	-11074
▁ampun	-11075
▁cian	-11076
▁menged	-11077
▁pita	-11078
▁swiss	-11079
▁masarakat	-11080
resent	-11081
▁requ	-11082
▁island	-11083
▁step	-11084
▁insiden	-11085
▁atr	-11086
▁daihatsu	-11087
wati	-11088
▁mencukupi	-11089
▁lumrah	-11090
▁diarahkan	-11091
▁sandal	-11092
▁kemih	-11093
▁reh	-11094
▁size	-11095
▁parfum	-11096
yid	-11097
▁tertib	-11098
▁bio	-11099
▁penjualnya	-11100
idur	-11101
▁stan	-11102
nn	-11103
▁deg	-11104
▁rukun	-11105
▁kupu	-11106
▁pabrikan	-11107
▁ambon	-11108
▁peter	-11109
▁penyediaan	-11110
ream	-11111
26	-11112
▁fm	-11113
▁premier	-11114
erankan	-11115
▁memperbesar	-11116
▁gabung	-11117
▁pilot	-11118
▁paj	-11119
▁privasi	-11120
▁mouse	-11121
▁olymp	-11122
▁leng	-11123
idh	-11124
▁keberangkatan	-11125
mon	-11126
▁pemecahan	-11127
▁mengap	-11128
▁sambal	-11129
▁kangge	-11130
vo	-11131
▁batubara	-11132
▁kedalaman	-11133
▁mars	-11134
▁pengacara	-11135
itir	-11136
▁bandarq	-11137
▁amor	-11138
alanda	-11139
▁mimiti	-11140
▁fik	-11141
▁wallp	-11142
wo	-11143
▁subhan	-11144
▁ruko	-11145
▁wes	-11146
▁kompr	-11147
▁baé	-11148
aksanaan	-11149
▁diseb	-11150
▁tungg	-11151
▁learning	-11152
▁pendamping	-11153
▁zaitun	-11154
▁sadurung	-11155
▁pembengk	-11156
ernih	-11157
▁kabinet	-11158
▁special	-11159
▁futsal	-11160
▁barulah	-11161
ulannya	-11162
▁',	-11163
▁kehidupannya	-11164
lai	-11165
▁valu	-11166
▁tgl	-11167
▁hair	-11168
▁kalebu	-11169
▁sombong	-11170
▁edukasi	-11171
▁akh	-11172
▁sour	-11173
▁tanganku	-11174
terior	-11175
▁thn	-11176
▁nakal	-11177
angsungan	-11178
▁perkotaan	-11179
▁ditand	-11180
hel	-11181
oster	-11182
▁regulasi	-11183
▁penghasil	-11184
▁second	-11185
▁mendapati	-11186
▁mahasis	-11187
▁individual	-11188
▁kebersamaan	-11189
▁nebula	-11190
▁protes	-11191
tri	-11192
▁waé	-11193
▁dikembalikan	-11194
▁victor	-11195
▁madiun	-11196
▁mengutamakan	-11197
▁kirimkan	-11198
▁legislatif	-11199
ebutan	-11200
▁bik	-11201
▁kemah	-11202
urasi	-11203
▁ajar	-11204
▁bela	-11205
▁meneruskan	-11206
▁makmur	-11207
▁mek	-11208
▁menetap	-11209
▁orgasme	-11210
▁disambut	-11211
▁ucapnya	-11212
▁visa	-11213
▁sew	-11214
▁puji	-11215
▁akhlak	-11216
▁bertek	-11217
▁merancang	-11218
▁daftarkan	-11219
entum	-11220
apasan	-11221
▁ratus	-11222
▁94	-11223
▁others	-11224
ilian	-11225
▁sumbangan	-11226
▁akut	-11227
▁putar	-11228
▁>"	-11229
▁siapakah	-11230
▁scan	-11231
esona	-11232
▁seketika	-11233
▁health	-11234
▁bintik	-11235
▁ditanam	-11236
▁rod	-11237
▁panik	-11238
edisi	-11239
▁aer	-11240
▁fast	-11241
▁1960	-11242
▁kebaya	-11243
▁globalisasi	-11244
▁berant	-11245
▁pontianak	-11246
ius	-11247
▁maz	-11248
aktifkan	-11249
ingkuh	-11250
▁terdahulu	-11251
▁diobati	-11252
▁menganalisis	-11253
▁;:	-11254
ayangkan	-11255
▁tsun	-11256
▁disc	-11257
▁perseroan	-11258
▁pist	-11259
▁gond	-11260
ices	-11261
▁-_-	-11262
ariat	-11263
yl	-11264
▁gaun	-11265
▁mlm	-11266
▁ugm	-11267
▁jenuh	-11268
ilo	-11269
etus	-11270
▁berpakaian	-11271
rep	-11272
▁tasikmalaya	-11273
▁ink	-11274
▁handuk	-11275
▁talaga	-11276
▁kono	-11277
▁maranéhanana	-11278
enge	-11279
▁dilalui	-11280
juangkan	-11281
▁kalurahan	-11282
▁kepeng	-11283
▁mè	-11284
▁sha	-11285
▁mass	-11286
▁respons	-11287
▁syariat	-11288
▁pembuangan	-11289
asane	-11290
▁majap	-11291
▁mengem	-11292
▁sutradara	-11293
▁segenap	-11294
▁mengamankan	-11295
▁alg	-11296
▁mengaktifkan	-11297
▁ibn	-11298
asup	-11299
▁personil	-11300
▁sengk	-11301
rin	-11302
▁gading	-11303
▁partner	-11304
▁cucu	-11305
▁akademi	-11306
uck	-11307
▁dimengerti	-11308
▁malik	-11309
▁permata	-11310
utra	-11311
alukan	-11312
99	-11313
▁selisih	-11314
▁teringat	-11315
orn	-11316
abisan	-11317
▁ew	-11318
▁pengenalan	-11319
▁dn	-11320
▁secepatnya	-11321
▁terapkan	-11322
▁profesor	-11323
ayar	-11324
▁walanda	-11325
▁isteri	-11326
▁bedah	-11327
▁abstr	-11328
▁syam	-11329
▁malahan	-11330
▁menutur	-11331
▁mengantar	-11332
▁kepadaku	-11333
▁shallallahu	-11334
pasang	-11335
▁shin	-11336
▁tolak	-11337
▁db	-11338
▁menyembunyikan	-11339
▁sovi	-11340
▁mahkamah	-11341
▁hidr	-11342
▁lawas	-11343
▁continue	-11344
▁dikemukakan	-11345
ajai	-11346
▁barisan	-11347
▁taksi	-11348
▁speaker	-11349
▁lele	-11350
▁pembac	-11351
▁birokrasi	-11352
lek	-11353
▁majapahit	-11354
▁ledakan	-11355
▁ibuku	-11356
tukar	-11357
wayatkan	-11358
▁jejaring	-11359
▁petualangan	-11360
eleng	-11361
▁menyetujui	-11362
▁mendeteksi	-11363
orter	-11364
▁messi	-11365
▁qual	-11366
▁sabung	-11367
▁panggil	-11368
▁dicer	-11369
▁gaib	-11370
▁pegang	-11371
▁katalog	-11372
umbu	-11373
▁liwat	-11374
▁desainer	-11375
▁diletakkan	-11376
▁radiasi	-11377
mptn	-11378
▁pergaulan	-11379
▁mendekat	-11380
▁ulasanno	-11381
alifah	-11382
▁memory	-11383
▁piyambakipun	-11384
imi	-11385
▁hardware	-11386
iris	-11387
hul	-11388
▁tuluy	-11389
▁official	-11390
▁pirang	-11391
▁pembersih	-11392
▁menggambar	-11393
▁kemauan	-11394
▁asasi	-11395
▁lilin	-11396
wara	-11397
▁nata	-11398
▁hentikan	-11399
▁personel	-11400
dal	-11401
▁ath	-11402
▁commer	-11403
▁keamanannya	-11404
▁menuturkan	-11405
▁terob	-11406
▁kemeja	-11407
aaf	-11408
▁350	-11409
embahkan	-11410
market	-11411
▁aspirasi	-11412
nie	-11413
▁kalayan	-11414
garan	-11415
▁nyoba	-11416
draw	-11417
▁relasi	-11418
▁oo	-11419
atic	-11420
▁dikabarkan	-11421
▁kurus	-11422
▁kén	-11423
▁cha	-11424
▁minus	-11425
irus	-11426
▁naw	-11427
▁kedelai	-11428
▁fleksibel	-11429
▁general	-11430
▁mé	-11431
▁terpasang	-11432
▁mapan	-11433
▁dilew	-11434
▁krn	-11435
right	-11436
▁dikirimkan	-11437
▁kondisinya	-11438
▁sof	-11439
▁kuta	-11440
▁sod	-11441
▁berdasar	-11442
▁perwira	-11443
▁bai	-11444
▁only	-11445
▁mani	-11446
▁menerbitkan	-11447
▁antibiotik	-11448
▁pungkasnya	-11449
urnya	-11450
▁cod	-11451
enj	-11452
▁conc	-11453
▁:'	-11454
ication	-11455
▁digantikan	-11456
▁bawahan	-11457
▁pertuk	-11458
▁selangk	-11459
▁ngantos	-11460
▁march	-11461
▁peliharaan	-11462
36	-11463
▁photos	-11464
▁bahw	-11465
▁pasokan	-11466
edulian	-11467
▁bermutu	-11468
emput	-11469
▁prok	-11470
optimalkan	-11471
aju	-11472
▁pedesaan	-11473
ept	-11474
arut	-11475
enaan	-11476
▁proper	-11477
▁gall	-11478
▁pembengkakan	-11479
▁mahkota	-11480
▁medium	-11481
▁kiai	-11482
idap	-11483
▁spt	-11484
▁relawan	-11485
▁tempe	-11486
▁bermotor	-11487
▁gps	-11488
▁1950	-11489
▁sakola	-11490
▁tank	-11491
siapa	-11492
▁terancam	-11493
▁disadari	-11494
▁peluncuran	-11495
▁know	-11496
▁berkala	-11497
▁jernih	-11498
▁nob	-11499
ombinasikan	-11500
▁ciptaan	-11501
▁pengendara	-11502
▁mengikut	-11503
▁leung	-11504
ansel	-11505
▁sejatinya	-11506
▁mahluk	-11507
▁serviks	-11508
▁dipegang	-11509
▁poé	-11510
▁dangdut	-11511
uel	-11512
▁kenari	-11513
▁bagiku	-11514
▁teor	-11515
▁kekel	-11516
▁japan	-11517
▁chan	-11518
zil	-11519
▁perkembangannya	-11520
▁sehubungan	-11521
▁berkembangnya	-11522
▁tersimpan	-11523
▁jurus	-11524
▁dipec	-11525
▁habit	-11526
▁daniel	-11527
▁rutinitas	-11528
▁dibekali	-11529
▁kelelahan	-11530
agar	-11531
▁turunan	-11532
▁cetakan	-11533
ratis	-11534
▁acak	-11535
▁hs	-11536
daan	-11537
▁nyatanya	-11538
▁aktivis	-11539
▁kebangga	-11540
iasi	-11541
▁insan	-11542
▁komplit	-11543
▁tongkat	-11544
hawatiran	-11545
▁menenangkan	-11546
▁sangkan	-11547
▁praja	-11548
▁mencic	-11549
▁pemiliknya	-11550
▁isti	-11551
▁jaksa	-11552
▁diarani	-11553
▁sarua	-11554
sipun	-11555
ahnya	-11556
▁kekhawatiran	-11557
inggo	-11558
▁telat	-11559
▁serp	-11560
zal	-11561
▁mulanya	-11562
▁diminum	-11563
▁teripang	-11564
▁popularitas	-11565
kat	-11566
alon	-11567
agus	-11568
▁pahami	-11569
▁princ	-11570
▁penarikan	-11571
▁indonesi	-11572
▁cemb	-11573
usahan	-11574
▁cross	-11575
▁kiranya	-11576
▁pasangannya	-11577
▁anggapan	-11578
▁patri	-11579
▁jos	-11580
▁lend	-11581
ball	-11582
▁britan	-11583
par	-11584
▁hidupku	-11585
▁keramik	-11586
turut	-11587
iat	-11588
yawarah	-11589
▁ninja	-11590
▁ntar	-11591
ampaui	-11592
▁dipersiapkan	-11593
ogp	-11594
▁rer	-11595
fs	-11596
▁berst	-11597
kuit	-11598
uburan	-11599
impun	-11600
▁rotan	-11601
▁konsekuensi	-11602
ucian	-11603
▁asta	-11604
▁rawan	-11605
ako	-11606
▁mengecewakan	-11607
▁makanannya	-11608
▁menju	-11609
▁son	-11610
▁61	-11611
▁maké	-11612
▁bersahabat	-11613
▁dikemas	-11614
▁jobs	-11615
▁jaring	-11616
▁kogn	-11617
▁pasta	-11618
▁syaikh	-11619
▁dwi	-11620
▁jateng	-11621
▁kios	-11622
▁teges	-11623
▁sallam	-11624
inium	-11625
▁farmasi	-11626
ground	-11627
▁rin	-11628
enging	-11629
▁rekreasi	-11630
▁rd	-11631
▁mengharuskan	-11632
lement	-11633
▁kesem	-11634
▁setinggi	-11635
▁mencobanya	-11636
▁hidayat	-11637
nnya	-11638
yaratkan	-11639
▁aff	-11640
▁content	-11641
▁micro	-11642
▁oks	-11643
▁memprakt	-11644
▁mebel	-11645
ulas	-11646
▁vaksin	-11647
▁prospek	-11648
▁prosesnya	-11649
▁dikend	-11650
▁memuji	-11651
▁pamarén	-11652
▁pemrograman	-11653
▁membu	-11654
▁terkecuali	-11655
▁dipungkiri	-11656
▁abb	-11657
eno	-11658
▁terper	-11659
▁xii	-11660
▁okay	-11661
▁keyword	-11662
▁timor	-11663
▁noda	-11664
▁penjuru	-11665
alongan	-11666
ukar	-11667
▁apar	-11668
jajar	-11669
éré	-11670
▁terbangun	-11671
▁jomb	-11672
▁cool	-11673
▁diuji	-11674
▁badai	-11675
▁1986	-11676
▁semut	-11677
▁study	-11678
▁selfie	-11679
▁komandan	-11680
▁beranda	-11681
ajahi	-11682
▁pelet	-11683
irat	-11684
▁jk	-11685
▁gay	-11686
▁calif	-11687
▁christ	-11688
▁doang	-11689
▁ril	-11690
▁]]	-11691
▁bord	-11692
▁identifikasi	-11693
▁sihir	-11694
tact	-11695
▁barangsiapa	-11696
vestasi	-11697
▁resta	-11698
news	-11699
▁hajar	-11700
▁penunjang	-11701
▁perab	-11702
▁elektrik	-11703
▁diandalkan	-11704
ekolah	-11705
▁koc	-11706
agak	-11707
▁beauty	-11708
▁lov	-11709
▁flo	-11710
▁propolis	-11711
▁adiknya	-11712
▁ess	-11713
▁bersep	-11714
▁khalifah	-11715
huk	-11716
▁dipan	-11717
▁ikh	-11718
▁disetujui	-11719
▁tembakan	-11720
▁menakutkan	-11721
▁sara	-11722
▁za	-11723
▁anugerah	-11724
▁1988	-11725
▁tib	-11726
▁upgrade	-11727
▁singkatan	-11728
▁bohong	-11729
▁kontra	-11730
▁mengusir	-11731
▁keterlibatan	-11732
▁rontok	-11733
formasikan	-11734
▁moham	-11735
▁lalaki	-11736
▁institut	-11737
▁bertu	-11738
▁inovatif	-11739
▁menika	-11740
▁kesamaan	-11741
▁mengulas	-11742
▁damp	-11743
▁she	-11744
▁pemanasan	-11745
▁taktik	-11746
raw	-11747
▁1985	-11748
▁arahan	-11749
▁temanku	-11750
▁esensi	-11751
▁gampong	-11752
▁seharian	-11753
ekake	-11754
door	-11755
▁kongres	-11756
ornia	-11757
▁denda	-11758
eria	-11759
▁belgia	-11760
▁gerai	-11761
yet	-11762
▁menyalurkan	-11763
▁jes	-11764
▁pertanda	-11765
▁eksperimen	-11766
ukainya	-11767
▁selebr	-11768
odifikasi	-11769
▁arj	-11770
waan	-11771
idiki	-11772
▁persatu	-11773
ampil	-11774
▁batal	-11775
▁nias	-11776
▁kesini	-11777
▁obrol	-11778
▁developer	-11779
▁cuti	-11780
awarga	-11781
▁asalnya	-11782
duh	-11783
▁penyerahan	-11784
▁menunda	-11785
▁diow	-11786
▁optimis	-11787
27	-11788
▁cianjur	-11789
▁menjatuhkan	-11790
tiga	-11791
▁rongga	-11792
▁menunt	-11793
▁integritas	-11794
▁cell	-11795
▁pantat	-11796
▁bersejarah	-11797
edang	-11798
upi	-11799
▁130	-11800
ax	-11801
loud	-11802
▁kewan	-11803
▁george	-11804
▁lauk	-11805
▁faktanya	-11806
▁berbunyi	-11807
▁exper	-11808
▁banyum	-11809
▁186	-11810
▁sif	-11811
▁fran	-11812
itian	-11813
▁mada	-11814
▁kepedulian	-11815
isit	-11816
▁peminat	-11817
▁pengab	-11818
▁kred	-11819
▁dicetak	-11820
▁bujet	-11821
▁kemul	-11822
▁pray	-11823
▁komplek	-11824
▁didominasi	-11825
▁alquran	-11826
▁liang	-11827
orientasi	-11828
umbang	-11829
▁tribun	-11830
▁nh	-11831
sif	-11832
▁hyang	-11833
▁berburu	-11834
▁dun	-11835
bn	-11836
band	-11837
▁ix	-11838
▁subyek	-11839
▁handap	-11840
▁kado	-11841
▁kristal	-11842
adw	-11843
▁membacanya	-11844
itim	-11845
▁wangs	-11846
▁cin	-11847
▁sablon	-11848
▁dikumpulkan	-11849
▁access	-11850
▁california	-11851
▁madinah	-11852
▁kaluar	-11853
▁menari	-11854
▁lec	-11855
▁1987	-11856
▁hindi	-11857
▁peperangan	-11858
▁kiwari	-11859
▁asik	-11860
▁moment	-11861
▁prasasti	-11862
▁pukulan	-11863
▁tsunami	-11864
▁taruh	-11865
▁mengetahuinya	-11866
▁testim	-11867
▁diur	-11868
vern	-11869
▁pangand	-11870
▁tertidur	-11871
▁terakhirnya	-11872
▁pekalongan	-11873
▁ilang	-11874
▁penguatan	-11875
antasan	-11876
▁kawah	-11877
igurasi	-11878
▁pengamanan	-11879
ujuran	-11880
▁polsek	-11881
▁ax	-11882
▁merep	-11883
▁nasihat	-11884
▁reguler	-11885
oses	-11886
▁apk	-11887
▁guar	-11888
▁penyamp	-11889
▁matak	-11890
▁kebanggaan	-11891
▁pala	-11892
▁wujudkan	-11893
▁lut	-11894
▁penataan	-11895
▁makat	-11896
▁sena	-11897
▁screen	-11898
adig	-11899
▁subst	-11900
thi	-11901
▁philip	-11902
▁kemac	-11903
▁sund	-11904
tak	-11905
▁dipertimbangkan	-11906
▁dikala	-11907
▁meet	-11908
▁money	-11909
▁publish	-11910
amai	-11911
▁usa	-11912
▁maul	-11913
unting	-11914
▁ingatlah	-11915
▁ladang	-11916
andap	-11917
mm	-11918
90	-11919
▁tengok	-11920
▁great	-11921
▁otonomi	-11922
▁secukup	-11923
▁deli	-11924
▁140	-11925
▁dipaksa	-11926
tro	-11927
iano	-11928
▁salib	-11929
▁kista	-11930
▁jazz	-11931
▁frame	-11932
▁juri	-11933
▁adr	-11934
enario	-11935
lung	-11936
▁pertukaran	-11937
▁last	-11938
▁kulkas	-11939
▁keluarnya	-11940
▁saint	-11941
▁neur	-11942
▁motogp	-11943
▁kisi	-11944
▁kuantitas	-11945
▁ngarep	-11946
▁heboh	-11947
▁disin	-11948
▁sesak	-11949
▁balashapus	-11950
▁bocor	-11951
▁bia	-11952
▁ach	-11953
ird	-11954
▁logis	-11955
▁wala	-11956
▁fantastis	-11957
▁perdarahan	-11958
▁sriwijaya	-11959
utanan	-11960
▁desktop	-11961
▁pipi	-11962
ormat	-11963
▁orientasi	-11964
▁panah	-11965
▁tempur	-11966
vensi	-11967
▁biod	-11968
esitas	-11969
▁north	-11970
▁tertua	-11971
▁watak	-11972
▁momentum	-11973
▁pemulihan	-11974
▁sambutannya	-11975
▁berke	-11976
▁nyitir	-11977
▁keta	-11978
eunna	-11979
▁oral	-11980
▁fatal	-11981
▁trump	-11982
ungku	-11983
▁aplik	-11984
▁dhuw	-11985
iringi	-11986
▁subuh	-11987
ulik	-11988
▁mulutnya	-11989
▁gemar	-11990
▁mboten	-11991
▁ntb	-11992
eless	-11993
▁spam	-11994
▁site	-11995
▁leluhur	-11996
▁rag	-11997
▁simulasi	-11998
▁memasarkan	-11999
▁kerip	-12000
▁indahnya	-12001
intangi	-12002
▁maag	-12003
▁roul	-12004
▁cintai	-12005
ampingan	-12006
▁meks	-12007
▁bina	-12008
▁memut	-12009
▁kipas	-12010
▁sambungan	-12011
▁menyis	-12012
▁kafe	-12013
▁pki	-12014
intasi	-12015
▁penolakan	-12016
▁menelepon	-12017
okol	-12018
▁diucapkan	-12019
▁suruh	-12020
▁ninggal	-12021
▁rame	-12022
▁karno	-12023
▁soviet	-12024
etu	-12025
med	-12026
▁keliru	-12027
▁berinvestasi	-12028
▁akreditasi	-12029
▁1984	-12030
▁dara	-12031
▁goa	-12032
▁pilar	-12033
▁pengurangan	-12034
enia	-12035
▁nyebut	-12036
▁diy	-12037
izen	-12038
oku	-12039
yit	-12040
▁pod	-12041
▁kemacetan	-12042
anggakan	-12043
▁esa	-12044
▁mending	-12045
▁kaka	-12046
▁pemenuhan	-12047
▁né	-12048
▁cli	-12049
▁stud	-12050
▁bersantai	-12051
▁ajaib	-12052
uit	-12053
▁kehabisan	-12054
▁pengajuan	-12055
▁shal	-12056
▁menebak	-12057
▁kela	-12058
▁secukupnya	-12059
urant	-12060
▁bermimpi	-12061
iayai	-12062
▁impikan	-12063
▁lagunya	-12064
▁melompat	-12065
▁wisuda	-12066
▁asin	-12067
▁syd	-12068
▁dilak	-12069
git	-12070
▁tembus	-12071
▁ball	-12072
diterbitkan	-12073
▁terpengaruh	-12074
88	-12075
▁.......	-12076
▁berturut	-12077
fc	-12078
▁manèh	-12079
abrak	-12080
▁gelang	-12081
▁menyalahkan	-12082
▁beranggapan	-12083
ambatan	-12084
▁hilangnya	-12085
opang	-12086
▁zul	-12087
▁didampingi	-12088
▁dekade	-12089
▁perawan	-12090
▁assalamu	-12091
aukan	-12092
▁konsol	-12093
▁dw	-12094
▁pasif	-12095
▁fifa	-12096
vis	-12097
amal	-12098
▁disingkat	-12099
▁antik	-12100
▁didepan	-12101
▁dipindahkan	-12102
▁academ	-12103
alisi	-12104
▁dihukum	-12105
▁atrib	-12106
watan	-12107
otika	-12108
gantungan	-12109
▁unggal	-12110
▁manawa	-12111
▁vertikal	-12112
udung	-12113
▁tembang	-12114
▁saus	-12115
▁sea	-12116
▁menghalangi	-12117
▁tautan	-12118
▁mcm	-12119
▁bagai	-12120
▁kagum	-12121
▁berdirinya	-12122
▁memberitahukan	-12123
▁komune	-12124
▁karunia	-12125
▁misterius	-12126
lokir	-12127
▁iritasi	-12128
▁pebisnis	-12129
▁pengangkatan	-12130
▁berbuka	-12131
anduan	-12132
▁kebangkitan	-12133
▁keberadaannya	-12134
▁sesuaikan	-12135
▁valent	-12136
▁caleg	-12137
▁moj	-12138
afal	-12139
▁ngatur	-12140
▁pengangguran	-12141
▁klinis	-12142
▁kebumen	-12143
fren	-12144
▁peluru	-12145
▁nasa	-12146
▁bergaya	-12147
▁rio	-12148
êmb	-12149
▁ketr	-12150
▁lingkungannya	-12151
▁selagi	-12152
▁wafat	-12153
▁menanti	-12154
ainment	-12155
▁seratus	-12156
▁boom	-12157
ipkan	-12158
▁rate	-12159
▁tengk	-12160
ratiz	-12161
▁membosan	-12162
▁kost	-12163
▁short	-12164
estarian	-12165
▁touch	-12166
▁bagaikan	-12167
▁denganku	-12168
▁beral	-12169
▁maksudku	-12170
▁family	-12171
▁berkec	-12172
apasitas	-12173
▁aranj	-12174
▁mên	-12175
▁raih	-12176
▁syair	-12177
injauan	-12178
langratiz	-12179
▁ayahku	-12180
▁aduh	-12181
▁memint	-12182
apor	-12183
opor	-12184
zen	-12185
▁self	-12186
▁penyul	-12187
▁sora	-12188
uncur	-12189
▁mere	-12190
▁dudu	-12191
▁tembaga	-12192
▁aura	-12193
▁toleransi	-12194
len	-12195
▁dipublikasikan	-12196
▁lair	-12197
ukanya	-12198
▁xxx	-12199
▁makatên	-12200
▁diterjemahkan	-12201
▁plaza	-12202
▁menggoda	-12203
▁disepakati	-12204
▁politisi	-12205
arep	-12206
▁berkontr	-12207
tore	-12208
▁membebaskan	-12209
▁tekad	-12210
▁menduga	-12211
34	-12212
▁penguc	-12213
ask	-12214
▁menginjak	-12215
▁parpol	-12216
▁dikurangi	-12217
▁servis	-12218
zhab	-12219
▁dkk	-12220
▁membosankan	-12221
indra	-12222
▁blitar	-12223
▁terserang	-12224
▁untuknya	-12225
▁silver	-12226
jong	-12227
▁hello	-12228
field	-12229
▁date	-12230
lex	-12231
▁dihubungkan	-12232
▁kulawarga	-12233
▁ming	-12234
▁dimasak	-12235
▁terjatuh	-12236
▁uw	-12237
▁apotek	-12238
▁.-	-12239
▁pencurian	-12240
▁central	-12241
▁sistematis	-12242
udak	-12243
indukan	-12244
▁kecilnya	-12245
▁tangkap	-12246
▁rating	-12247
▁ruas	-12248
▁wc	-12249
▁penerangan	-12250
antauan	-12251
ungguhan	-12252
▁pizza	-12253
74	-12254
ego	-12255
info	-12256
▁rese	-12257
▁berwenang	-12258
▁zain	-12259
▁camat	-12260
▁cctv	-12261
▁mai	-12262
êdh	-12263
▁perpaduan	-12264
▁penampilannya	-12265
▁rawa	-12266
▁jalaran	-12267
hol	-12268
▁terkend	-12269
▁dipers	-12270
▁pig	-12271
▁sekutu	-12272
itiga	-12273
▁feed	-12274
eline	-12275
▁lh	-12276
▁kendati	-12277
▁bercak	-12278
▁trauma	-12279
▁ombak	-12280
▁publikasi	-12281
▁cant	-12282
tuanya	-12283
▁meksiko	-12284
▁menghidupkan	-12285
▁wahid	-12286
▁sagêd	-12287
▁memprediksi	-12288
▁uangnya	-12289
▁backlink	-12290
ebas	-12291
▁membatalkan	-12292
▁leluasa	-12293
▁ako	-12294
▁selangkangan	-12295
▁menjangkau	-12296
▁snap	-12297
hum	-12298
▁obrolan	-12299
▁tercepat	-12300
▁rol	-12301
▁fisi	-12302
▁déné	-12303
▁dress	-12304
▁perorangan	-12305
▁netizen	-12306
▁bukhari	-12307
▁berkapasitas	-12308
▁terorisme	-12309
ontalo	-12310
▁netral	-12311
▁cacah	-12312
▁tunjukkan	-12313
esna	-12314
▁penas	-12315
▁obesitas	-12316
▁mestinya	-12317
▁????	-12318
bilitas	-12319
lie	-12320
aft	-12321
▁apbn	-12322
aah	-12323
▁dimuat	-12324
▁nm	-12325
▁mengungkap	-12326
▁keris	-12327
▁melampaui	-12328
▁luput	-12329
▁fort	-12330
cher	-12331
akatan	-12332
▁bersel	-12333
▁sku	-12334
▁mancan	-12335
▁saudaranya	-12336
▁menggun	-12337
▁eksistensi	-12338
▁see	-12339
▁semudah	-12340
▁bakti	-12341
▁britania	-12342
▁rumahan	-12343
▁bungkus	-12344
▁bermunculan	-12345
obe	-12346
▁kulitnya	-12347
▁sumberdaya	-12348
▁ceo	-12349
▁kaasup	-12350
burg	-12351
▁penyi	-12352
▁penanggulangan	-12353
▁genre	-12354
▁kehar	-12355
▁merespon	-12356
▁membaik	-12357
▁btw	-12358
▁yehuwa	-12359
▁bayaran	-12360
▁pernapasan	-12361
▁pengarang	-12362
▁membas	-12363
▁development	-12364
▁fiber	-12365
aci	-12366
▁memotivasi	-12367
▁arya	-12368
▁luang	-12369
▁curug	-12370
▁bersabar	-12371
▁membenarkan	-12372
▁dengarkan	-12373
▁ato	-12374
▁golden	-12375
▁pemberantasan	-12376
▁komunis	-12377
▁lapis	-12378
▁membimbing	-12379
▁mamp	-12380
▁canon	-12381
▁stamina	-12382
▁reseller	-12383
▁berkhasiat	-12384
▁tampan	-12385
▁ketergantungan	-12386
▁menggerakkan	-12387
▁orm	-12388
jaba	-12389
75	-12390
▁diowah	-12391
▁kapur	-12392
▁setelahnya	-12393
▁pemkot	-12394
▁serum	-12395
▁terinspirasi	-12396
▁memainkannya	-12397
▁conn	-12398
▁meren	-12399
araja	-12400
▁iseng	-12401
oreng	-12402
▁meneliti	-12403
tung	-12404
anggang	-12405
▁detailnya	-12406
▁amir	-12407
▁saleh	-12408
▁cake	-12409
▁manuk	-12410
▁pertimbangkan	-12411
▁yi	-12412
▁secur	-12413
▁bercanda	-12414
▁lupakan	-12415
▁fitnah	-12416
▁restaurant	-12417
▁wallpaper	-12418
▁dumunung	-12419
▁pemeran	-12420
▁mahir	-12421
▁kognitif	-12422
▁bromo	-12423
tat	-12424
▁berbohong	-12425
▁berdekatan	-12426
▁blm	-12427
hana	-12428
▁kondom	-12429
tipu	-12430
▁swedia	-12431
▁pengemudi	-12432
ormal	-12433
▁paruh	-12434
▁entert	-12435
▁renovasi	-12436
▁mekar	-12437
▁gluk	-12438
▁perda	-12439
▁buyer	-12440
▁percepatan	-12441
▁source	-12442
▁sedikitnya	-12443
▁pdip	-12444
▁cabe	-12445
▁vill	-12446
▁history	-12447
oskan	-12448
alus	-12449
▁didunia	-12450
▁mabuk	-12451
▁metu	-12452
▁pemukiman	-12453
▁kawruh	-12454
▁segitiga	-12455
▁rejek	-12456
▁itupun	-12457
▁1983	-12458
▁menemukannya	-12459
▁ill	-12460
▁cet	-12461
▁vokal	-12462
▁pembangkit	-12463
▁marc	-12464
mati	-12465
▁inget	-12466
▁semasa	-12467
idana	-12468
▁masehi	-12469
▁dikau	-12470
▁tis	-12471
akit	-12472
▁penduduknya	-12473
▁kehutanan	-12474
▁dilindungi	-12475
▁outdoor	-12476
▁panggonan	-12477
▁barunya	-12478
▁musyawarah	-12479
▁silat	-12480
▁gawé	-12481
▁mengangg	-12482
▁terbentuknya	-12483
▁penyimpangan	-12484
▁berny	-12485
▁smartfren	-12486
▁syiah	-12487
ijen	-12488
▁click	-12489
▁made	-12490
ility	-12491
imanan	-12492
▁beranjak	-12493
▁infonya	-12494
▁kedai	-12495
▁jalani	-12496
▁dinamika	-12497
ites	-12498
▁value	-12499
▁dt	-12500
ude	-12501
▁salju	-12502
▁kemawon	-12503
▁ampl	-12504
▁nit	-12505
▁roulette	-12506
empurnakan	-12507
▁sae	-12508
▁sangka	-12509
ingankan	-12510
akh	-12511
▁cho	-12512
▁paksa	-12513
▁185	-12514
▁eko	-12515
▁penutupan	-12516
oci	-12517
akala	-12518
ule	-12519
isé	-12520
▁kolaborasi	-12521
▁massal	-12522
▁kean	-12523
▁tilu	-12524
▁leutik	-12525
▁ready	-12526
▁terintegrasi	-12527
▁berorientasi	-12528
copy	-12529
▁keser	-12530
▁weh	-12531
▁klip	-12532
fungsi	-12533
▁eli	-12534
iskan	-12535
▁rank	-12536
▁kartini	-12537
▁pesiar	-12538
▁sebenernya	-12539
ariku	-12540
▁ramadan	-12541
▁akta	-12542
dang	-12543
▁kemand	-12544
▁bkn	-12545
▁diundang	-12546
▁mempercayai	-12547
▁hok	-12548
hotel	-12549
▁fad	-12550
▁balon	-12551
oterapi	-12552
▁ceramah	-12553
transfer	-12554
▁bere	-12555
▁panda	-12556
▁pelanggannya	-12557
puni	-12558
▁diwajibkan	-12559
▁paradig	-12560
arinda	-12561
▁rumusan	-12562
osari	-12563
ikatan	-12564
▁kapanpun	-12565
ensasi	-12566
▁kelihatannya	-12567
▁..,..	-12568
ungut	-12569
▁imaj	-12570
▁rant	-12571
ahar	-12572
▁pencemaran	-12573
▁ijo	-12574
▁diwar	-12575
▁becik	-12576
▁idaman	-12577
▁terduga	-12578
pers	-12579
▁tersusun	-12580
▁anggrek	-12581
▁kard	-12582
▁menanggung	-12583
▁jengg	-12584
rov	-12585
▁intensif	-12586
▁coff	-12587
▁bala	-12588
▁pusaka	-12589
▁menyangka	-12590
obo	-12591
▁dhaw	-12592
imbau	-12593
▁hepat	-12594
rium	-12595
▁akum	-12596
engku	-12597
organisasi	-12598
▁pengucapan	-12599
▁tuw	-12600
▁stain	-12601
▁buahnya	-12602
▁privat	-12603
▁pelaporan	-12604
▁rest	-12605
38	-12606
▁penyidik	-12607
▁melancarkan	-12608
▁dod	-12609
▁kuw	-12610
▁pind	-12611
▁jkt	-12612
inn	-12613
▁melimpah	-12614
▁lila	-12615
▁kelola	-12616
▁alhasil	-12617
hian	-12618
▁sleman	-12619
▁meledak	-12620
▁multim	-12621
▁kostum	-12622
▁lembur	-12623
efl	-12624
▁berujung	-12625
▁masi	-12626
eke	-12627
▁ekspedisi	-12628
inian	-12629
▁jangkauan	-12630
ajaiban	-12631
ville	-12632
▁testimoni	-12633
▁veget	-12634
▁92	-12635
▁dumugi	-12636
▁jenisnya	-12637
enyap	-12638
▁meh	-12639
▁np	-12640
▁ron	-12641
▁1982	-12642
▁mengawali	-12643
▁diceritakan	-12644
▁sudirman	-12645
ser	-12646
▁magi	-12647
▁skenario	-12648
▁menyingkirkan	-12649
▁ketenangan	-12650
sir	-12651
engarnya	-12652
bitan	-12653
carat	-12654
▁drastis	-12655
▁memperkirakan	-12656
▁amazon	-12657
ulung	-12658
▁menariknya	-12659
▁naruto	-12660
acy	-12661
▁oppa	-12662
▁mengol	-12663
▁genetik	-12664
▁iwan	-12665
▁berker	-12666
▁smpn	-12667
▁kutipan	-12668
▁rang	-12669
▁martin	-12670
▁komis	-12671
▁ekstrim	-12672
met	-12673
▁irak	-12674
▁hill	-12675
▁civ	-12676
▁itb	-12677
▁berta	-12678
▁kuc	-12679
▁nand	-12680
con	-12681
▁sydney	-12682
▁memanjakan	-12683
▁polusi	-12684
▁terserah	-12685
ury	-12686
▁mulya	-12687
▁samarinda	-12688
▁night	-12689
alaikum	-12690
▁ebook	-12691
▁skin	-12692
▁pendarahan	-12693
▁lurah	-12694
▁brig	-12695
anggep	-12696
usahakan	-12697
upas	-12698
▁menyimak	-12699
▁pemasok	-12700
▁subang	-12701
▁fk	-12702
▁bersam	-12703
yon	-12704
▁rambutnya	-12705
▁memajukan	-12706
▁berterima	-12707
uaan	-12708
uarga	-12709
▁kolonial	-12710
▁cole	-12711
▁proyèk	-12712
▁resm	-12713
uguhkan	-12714
________	-12715
▁subsidi	-12716
apis	-12717
pret	-12718
▁penyerang	-12719
▁ujungnya	-12720
gasi	-12721
▁bait	-12722
▁::	-12723
▁kesukaan	-12724
▁golf	-12725
▁nyen	-12726
elasi	-12727
▁menyet	-12728
▁adipati	-12729
▁,..	-12730
▁amérika	-12731
▁figur	-12732
▁81	-12733
▁kro	-12734
▁jagad	-12735
▁assist	-12736
owongan	-12737
▁old	-12738
▁detil	-12739
sub	-12740
akon	-12741
▁hee	-12742
anipun	-12743
▁research	-12744
▁duluan	-12745
▁asih	-12746
▁:-	-12747
▁maen	-12748
▁energy	-12749
▁icon	-12750
▁paud	-12751
ulaan	-12752
▁ice	-12753
▁lepaskan	-12754
ilaf	-12755
▁pembina	-12756
▁penjelasannya	-12757
▁mendesain	-12758
▁gatot	-12759
umpa	-12760
▁kuburan	-12761
▁saku	-12762
▁pasifik	-12763
▁nuduh	-12764
▁case	-12765
▁saperti	-12766
orbanan	-12767
oriz	-12768
▁sawisé	-12769
▁jr	-12770
▁meniru	-12771
▁estim	-12772
▁story	-12773
▁space	-12774
▁beraktivitas	-12775
▁tea	-12776
▁bulannya	-12777
ambangkan	-12778
▁salon	-12779
▁jamb	-12780
▁keajaiban	-12781
▁mudahnya	-12782
▁spand	-12783
▁etik	-12784
▁baccarat	-12785
▁dipasarkan	-12786
▁mantra	-12787
▁fajar	-12788
▁demak	-12789
▁pengungsi	-12790
▁kees	-12791
▁penjaj	-12792
▁berkomentar	-12793
tab	-12794
▁jay	-12795
▁fal	-12796
▁shahih	-12797
▁teladan	-12798
bp	-12799
▁melamar	-12800
▁berisiko	-12801
aham	-12802
orejo	-12803
▁solat	-12804
igo	-12805
▁jae	-12806
▁mw	-12807
▁makeup	-12808
▁deras	-12809
ege	-12810
▁bla	-12811
▁senapan	-12812
▁tetaplah	-12813
fl	-12814
▁terungkap	-12815
▁himpunan	-12816
▁temperatur	-12817
▁basic	-12818
▁paparan	-12819
▁tki	-12820
▁pertanyaannya	-12821
▁komen	-12822
▁lestari	-12823
▁tangki	-12824
yuh	-12825
▁state	-12826
▁kemitraan	-12827
orikan	-12828
▁menandatangani	-12829
eee	-12830
witi	-12831
▁period	-12832
omen	-12833
▁mengizinkan	-12834
▁penerbitan	-12835
▁sialan	-12836
▁kpr	-12837
▁manah	-12838
▁pegangan	-12839
▁dibakar	-12840
tt	-12841
apusan	-12842
▁kamarnya	-12843
▁penyajian	-12844
▁urban	-12845
▁tugu	-12846
okuskan	-12847
▁irama	-12848
▁lir	-12849
▁rif	-12850
▁hyun	-12851
▁jena	-12852
▁moyang	-12853
ishi	-12854
▁mour	-12855
ason	-12856
▁ketrampilan	-12857
usta	-12858
▁pasuruan	-12859
▁notebook	-12860
▁berkonsultasi	-12861
ritik	-12862
▁rampung	-12863
▁jomblo	-12864
▁ung	-12865
▁meringankan	-12866
▁oleskan	-12867
▁rebus	-12868
▁mengevaluasi	-12869
▁janda	-12870
rag	-12871
▁1981	-12872
zy	-12873
tasi	-12874
▁sawat	-12875
▁menyeg	-12876
embah	-12877
▁mach	-12878
▁ketiak	-12879
▁pengabdian	-12880
▁hasrat	-12881
▁manufaktur	-12882
▁galeri	-12883
▁terjual	-12884
▁kapolres	-12885
▁fiksi	-12886
elakang	-12887
▁ngali	-12888
▁logistik	-12889
▁750	-12890
▁ipad	-12891
▁pergilah	-12892
▁beradaptasi	-12893
▁geografis	-12894
yyah	-12895
orak	-12896
▁atribut	-12897
emi	-12898
▁bocoran	-12899
▁berminyak	-12900
▁umkm	-12901
▁kejujuran	-12902
▁dream	-12903
▁astra	-12904
ences	-12905
▁diji	-12906
▁bersinar	-12907
▁kulihat	-12908
▁mengulang	-12909
▁kebugaran	-12910
▁pcs	-12911
▁wangun	-12912
resiasi	-12913
ontakan	-12914
▁pengamat	-12915
▁aparatur	-12916
▁dibicarakan	-12917
dar	-12918
▁banyumas	-12919
eneur	-12920
▁ump	-12921
▁demonstr	-12922
▁pkb	-12923
66	-12924
▁gaming	-12925
▁diteg	-12926
▁mila	-12927
▁dog	-12928
▁harmonis	-12929
iskusi	-12930
yangan	-12931
ancuran	-12932
▁kaul	-12933
ailah	-12934
▁hits	-12935
▁kebon	-12936
isili	-12937
▁berkeliling	-12938
▁nana	-12939
▁rc	-12940
▁én	-12941
▁tower	-12942
▁dokumentasi	-12943
*)	-12944
▁brah	-12945
urai	-12946
▁katun	-12947
▁mendarat	-12948
▁ceria	-12949
▁script	-12950
▁terangnya	-12951
▁mencarinya	-12952
▁administratif	-12953
▁pengorbanan	-12954
▁sbb	-12955
▁mult	-12956
▁serentak	-12957
▁sumedang	-12958
▁rach	-12959
▁amanat	-12960
▁melintasi	-12961
▁pulih	-12962
▁sumut	-12963
▁pix	-12964
ms	-12965
▁paran	-12966
▁fly	-12967
▁mumpuni	-12968
▁menurutku	-12969
weet	-12970
▁tayangan	-12971
▁ntt	-12972
▁peka	-12973
▁mengutip	-12974
▁algorit	-12975
▁mengelilingi	-12976
▁indonesian	-12977
▁pelengkap	-12978
▁laser	-12979
▁peternak	-12980
▁penciptaan	-12981
▁cikarang	-12982
▁tawa	-12983
▁mengoptimalkan	-12984
▁viii	-12985
▁bd	-12986
▁pow	-12987
anaan	-12988
usif	-12989
▁gugatan	-12990
▁diprediksi	-12991
▁seny	-12992
ekh	-12993
▁grav	-12994
▁distro	-12995
▁num	-12996
▁desc	-12997
aisaran	-12998
atuhan	-12999
iklan	-13000
▁lendir	-13001
▁wond	-13002
▁kedaul	-13003
▁pelangi	-13004
▁asrama	-13005
▁syn	-13006
▁memilikinya	-13007
yuk	-13008
▁gurih	-13009
andra	-13010
▁berfirman	-13011
!!!	-13012
▁charles	-13013
▁foot	-13014
akas	-13015
▁perkan	-13016
olasi	-13017
▁ketidaks	-13018
awas	-13019
pati	-13020
▁kedaulatan	-13021
▁kupang	-13022
▁ika	-13023
▁hig	-13024
▁mendominasi	-13025
▁buil	-13026
lika	-13027
inger	-13028
▁semisal	-13029
▁corak	-13030
yog	-13031
▁...”	-13032
▁marg	-13033
ografer	-13034
lad	-13035
▁panti	-13036
amen	-13037
▁[[	-13038
kup	-13039
lines	-13040
▁ngagunakeun	-13041
qi	-13042
▁penel	-13043
▁sawise	-13044
▁bong	-13045
▁slim	-13046
▁pendatang	-13047
▁kekec	-13048
▁smu	-13049
▁dihubungi	-13050
ipulasi	-13051
▁gantung	-13052
▁evolusi	-13053
▁menyayang	-13054
▁koalisi	-13055
▁kic	-13056
sihan	-13057
▁memus	-13058
▁samudra	-13059
▁bron	-13060
▁diberlakukan	-13061
▁brit	-13062
▁penerus	-13063
ebo	-13064
▁kuar	-13065
▁ahh	-13066
▁meluas	-13067
▁meminim	-13068
▁skrg	-13069
▁hipotesis	-13070
▁pendingin	-13071
▁toba	-13072
▁dialah	-13073
▁mourinho	-13074
▁gelem	-13075
▁melewatkan	-13076
tut	-13077
▁rekayasa	-13078
▁dikit	-13079
abek	-13080
aho	-13081
▁teuing	-13082
▁lint	-13083
indonesia	-13084
▁bernyanyi	-13085
▁unduh	-13086
update	-13087
▁curhat	-13088
gunakaké	-13089
▁jambu	-13090
akr	-13091
alaminya	-13092
▁hall	-13093
▁membuktikannya	-13094
▁memfasilitasi	-13095
▁mali	-13096
▁ditel	-13097
▁paradigma	-13098
▁bej	-13099
ats	-13100
▁1965	-13101
▁poc	-13102
▁bernaf	-13103
▁melacak	-13104
eliat	-13105
▁soto	-13106
▁cost	-13107
▁tools	-13108
▁kepri	-13109
lywood	-13110
▁memperlakukan	-13111
▁supermarket	-13112
▁persia	-13113
▁agent	-13114
▁kaayaan	-13115
▁astaga	-13116
▁pangkalan	-13117
taf	-13118
▁empuk	-13119
▁mog	-13120
▁andai	-13121
▁memperpanjang	-13122
▁prest	-13123
▁kemaren	-13124
▁kemuliaan	-13125
▁base	-13126
▁jawabnya	-13127
ontan	-13128
▁berpisah	-13129
utri	-13130
▁dijawab	-13131
▁males	-13132
èm	-13133
apainya	-13134
▁nggunakake	-13135
alamannya	-13136
ultanan	-13137
▁rekomendasikan	-13138
▁ananging	-13139
▁donk	-13140
ondo	-13141
▁berlawanan	-13142
▁dihargai	-13143
cle	-13144
▁pph	-13145
▁mancanegara	-13146
▁aluminium	-13147
▁permulaan	-13148
amel	-13149
éa	-13150
▁menginspirasi	-13151
▁bisnisnya	-13152
▁gedhé	-13153
▁ataukah	-13154
▁didorong	-13155
▁pengecekan	-13156
▁paper	-13157
▁nindak	-13158
▁tegasnya	-13159
▁mengusulkan	-13160
▁movie	-13161
▁portugal	-13162
▁biy	-13163
ombe	-13164
▁boss	-13165
▁reputasinya	-13166
▁commerce	-13167
▁hilir	-13168
▁yatim	-13169
atatan	-13170
▁bantul	-13171
▁steel	-13172
▁ruh	-13173
▁kaset	-13174
▁fish	-13175
▁ajukan	-13176
▁hlm	-13177
otkan	-13178
▁eksekusi	-13179
▁dilatih	-13180
▁door	-13181
▁penul	-13182
▁dateng	-13183
bank	-13184
▁lampiran	-13185
▁peradilan	-13186
▁mustika	-13187
asannya	-13188
▁koordinator	-13189
▁gender	-13190
▁tatanan	-13191
▁diklaim	-13192
akk	-13193
bau	-13194
▁redmi	-13195
▁separuh	-13196
▁atan	-13197
▁buktikan	-13198
▁berbayar	-13199
lif	-13200
▁gunanya	-13201
▁berkenaan	-13202
itch	-13203
▁sadari	-13204
▁shi	-13205
rih	-13206
▁perkantoran	-13207
▁mungil	-13208
▁jurnalis	-13209
▁tertangkap	-13210
▁yerus	-13211
▁equ	-13212
▁ft	-13213
▁paspor	-13214
▁parameter	-13215
▁dihentikan	-13216
▁dharma	-13217
▁berdosa	-13218
▁journ	-13219
bs	-13220
▁manggis	-13221
▁cris	-13222
▁safety	-13223
▁berasa	-13224
▁pakistan	-13225
angsungkan	-13226
▁plugin	-13227
▁taksih	-13228
ilia	-13229
▁gelandang	-13230
▁berjalannya	-13231
▁enter	-13232
▁inisiatif	-13233
encian	-13234
▁ukiran	-13235
ime	-13236
▁menyakiti	-13237
pora	-13238
▁konservasi	-13239
▁imut	-13240
▁memasukan	-13241
▁lahirnya	-13242
▁informasinya	-13243
▁êngg	-13244
▁fundam	-13245
▁mengunduh	-13246
▁derita	-13247
▁ikat	-13248
▁-.	-13249
ikapi	-13250
olio	-13251
aafkan	-13252
▁silinder	-13253
▁apaan	-13254
▁bawahnya	-13255
▁jenazah	-13256
▁mayor	-13257
▁bertrans	-13258
▁contr	-13259
▁pencerahan	-13260
▁ov	-13261
▁gagah	-13262
▁dpp	-13263
▁informatika	-13264
▁meminjam	-13265
▁hatimu	-13266
▁berpas	-13267
▁menabung	-13268
▁catur	-13269
uban	-13270
▁beta	-13271
▁teratas	-13272
▁metod	-13273
▁pasrah	-13274
asiatnya	-13275
▁pemberontakan	-13276
▁kénéh	-13277
▁crystal	-13278
lav	-13279
▁trail	-13280
▁awards	-13281
▁membuah	-13282
▁terbalik	-13283
39	-13284
▁sekretariat	-13285
▁penjahat	-13286
▁tubuhku	-13287
▁amargi	-13288
▁dhéwé	-13289
ancaran	-13290
▁mencintaimu	-13291
êngan	-13292
▁diklat	-13293
▁kacau	-13294
▁kreatifitas	-13295
kol	-13296
▁cemburu	-13297
▁segan	-13298
▁bersen	-13299
ray	-13300
idangan	-13301
▁pembimbing	-13302
▁membikin	-13303
▁bergaul	-13304
▁sarat	-13305
eferens	-13306
ardi	-13307
umbuh	-13308
▁carilah	-13309
fo	-13310
entian	-13311
▁diperd	-13312
▁penyalah	-13313
▁menumpuk	-13314
▁abstrak	-13315
des	-13316
▁cast	-13317
jaran	-13318
éné	-13319
▁harita	-13320
▁belitung	-13321
▁ain	-13322
jk	-13323
▁gian	-13324
▁sampingan	-13325
▁kebencian	-13326
▁sedekah	-13327
▁dieu	-13328
hap	-13329
▁number	-13330
▁doktor	-13331
▁kunyit	-13332
aksian	-13333
agihan	-13334
▁pérangan	-13335
▁jose	-13336
▁berkomitmen	-13337
▁saing	-13338
▁melukis	-13339
▁govern	-13340
▁hartina	-13341
▁rossi	-13342
▁membesarkan	-13343
▁...?	-13344
76	-13345
ful	-13346
▁bicarakan	-13347
▁purwokerto	-13348
▁perantara	-13349
▁imbalan	-13350
asah	-13351
▁menyatukan	-13352
▁inch	-13353
urukan	-13354
▁kelulusan	-13355
▁berkenan	-13356
▁ditanyakan	-13357
▁kebijaksanaan	-13358
▁poster	-13359
▁pernahkah	-13360
endra	-13361
▁lemas	-13362
▁komando	-13363
▁bereaksi	-13364
▁sesat	-13365
▁rain	-13366
▁buktinya	-13367
▁lebat	-13368
alimantan	-13369
▁local	-13370
▁merem	-13371
▁pssi	-13372
▁huh	-13373
▁keesokan	-13374
▁sejenisnya	-13375
▁memengaruhi	-13376
▁jombang	-13377
▁mengind	-13378
▁rawat	-13379
▁squar	-13380
▁berdiskusi	-13381
sar	-13382
▁menata	-13383
79	-13384
▁tegang	-13385
▁pondasi	-13386
▁mendi	-13387
▁hana	-13388
▁rendahnya	-13389
▁purba	-13390
▁melaju	-13391
▁withdraw	-13392
ities	-13393
▁progres	-13394
▁display	-13395
▁penerj	-13396
▁broad	-13397
▁ngono	-13398
▁client	-13399
▁panjangnya	-13400
▁henry	-13401
▁rejeki	-13402
▁menyukainya	-13403
▁njaluk	-13404
▁sipat	-13405
▁ciuman	-13406
▁contact	-13407
▁untukku	-13408
▁july	-13409
try	-13410
▁bercampur	-13411
acap	-13412
▁pembuatannya	-13413
▁february	-13414
▁tendangan	-13415
▁diwak	-13416
▁benak	-13417
▁samar	-13418
▁membawakan	-13419
col	-13420
▁dead	-13421
▁richard	-13422
▁berfokus	-13423
aput	-13424
▁dicek	-13425
▁dipas	-13426
▁browsing	-13427
▁kriminal	-13428
▁akting	-13429
▁berbatasan	-13430
▁notifikasi	-13431
▁simpati	-13432
uster	-13433
▁price	-13434
imbangi	-13435
▁atasi	-13436
▁suite	-13437
▁percay	-13438
▁membina	-13439
▁yos	-13440
▁penyampaian	-13441
▁sian	-13442
▁satupun	-13443
▁math	-13444
▁kesiapan	-13445
▁town	-13446
▁sinilah	-13447
▁nop	-13448
▁perlomba	-13449
▁penghitungan	-13450
ampok	-13451
▁ear	-13452
▁perlukan	-13453
▁paste	-13454
▁silaturahmi	-13455
▁melemah	-13456
▁0812	-13457
▁penegak	-13458
▁konversi	-13459
▁py	-13460
▁sentuh	-13461
▁istriku	-13462
▁170	-13463
▁dinten	-13464
▁mê	-13465
▁absen	-13466
▁diposting	-13467
angh	-13468
▁ditayangkan	-13469
ultasikan	-13470
ener	-13471
▁keas	-13472
▁kelamaan	-13473
▁insyaallah	-13474
▁mesjid	-13475
▁julukan	-13476
▁menyimpang	-13477
▁angan	-13478
▁kual	-13479
▁jasad	-13480
apres	-13481
▁teriak	-13482
▁spontan	-13483
▁santun	-13484
▁tauh	-13485
optera	-13486
▁terlah	-13487
▁satwa	-13488
▁liku	-13489
▁iklangratiz	-13490
▁khat	-13491
▁kenyang	-13492
▁entertainment	-13493
▁sepele	-13494
▁mendaki	-13495
rio	-13496
▁pembersihan	-13497
▁suamiku	-13498
▁yerusalem	-13499
▁kemarahan	-13500
▁intervensi	-13501
▁mengasih	-13502
idul	-13503
▁mengetik	-13504
▁mengundurkan	-13505
eras	-13506
▁foundation	-13507
rad	-13508
▁tatkala	-13509
▁mencicipi	-13510
akm	-13511
ekanan	-13512
estan	-13513
▁kekal	-13514
▁keenam	-13515
idin	-13516
▁rim	-13517
▁pepaya	-13518
▁protokol	-13519
▁ranah	-13520
▁konfigurasi	-13521
▁january	-13522
aban	-13523
ekkan	-13524
ebes	-13525
▁laks	-13526
▁kilogram	-13527
▁selam	-13528
▁mobilnya	-13529
▁minor	-13530
ompokkan	-13531
uro	-13532
▁memperjuangkan	-13533
▁moto	-13534
▁fau	-13535
▁atmosfer	-13536
▁sidik	-13537
▁memaparkan	-13538
uld	-13539
opsis	-13540
▁perpanjangan	-13541
▁makn	-13542
tain	-13543
▁bw	-13544
▁ngendi	-13545
kalimantan	-13546
▁nn	-13547
▁fred	-13548
▁mengoperasikan	-13549
▁arang	-13550
▁redaksi	-13551
awijaya	-13552
▁bani	-13553
▁penisku	-13554
▁tix	-13555
▁entitas	-13556
▁nipis	-13557
▁kalaupun	-13558
▁henti	-13559
48	-13560
bin	-13561
▁migas	-13562
▁perlombaan	-13563
▁anies	-13564
▁centre	-13565
▁kejam	-13566
fic	-13567
▁genc	-13568
▁kuas	-13569
illy	-13570
▁uda	-13571
istribusikan	-13572
vr	-13573
▁maut	-13574
▁velg	-13575
▁prodi	-13576
▁berperang	-13577
▁kondusif	-13578
▁refleksi	-13579
akum	-13580
los	-13581
▁idola	-13582
bisnis	-13583
az	-13584
▁kecemasan	-13585
▁belaka	-13586
ules	-13587
ampiri	-13588
▁genap	-13589
▁buruan	-13590
▁terburu	-13591
▁melon	-13592
▁jelema	-13593
▁wag	-13594
roning	-13595
▁penari	-13596
▁alamiah	-13597
engat	-13598
▁jac	-13599
cash	-13600
▁roy	-13601
rise	-13602
▁got	-13603
▁hahahahaha	-13604
▁kerjaan	-13605
▁ngapain	-13606
▁menuai	-13607
▁sila	-13608
bie	-13609
▁lte	-13610
▁elas	-13611
▁pemakaman	-13612
▁imajinasi	-13613
▁perhubungan	-13614
▁bergel	-13615
▁obligasi	-13616
▁kura	-13617
▁memerintah	-13618
▁cyber	-13619
▁kegelapan	-13620
▁zoom	-13621
▁index	-13622
▁ormas	-13623
▁which	-13624
rahman	-13625
▁450	-13626
▁express	-13627
▁kib	-13628
▁kupon	-13629
▁pemicu	-13630
▁biasana	-13631
▁transformasi	-13632
arab	-13633
▁even	-13634
▁aur	-13635
▁diplom	-13636
▁terkecil	-13637
▁getah	-13638
▁multimedia	-13639
▁kumpul	-13640
▁diponegoro	-13641
▁perdebatan	-13642
▁layer	-13643
akaken	-13644
▁stabilitas	-13645
▁dragon	-13646
elkan	-13647
▁organiz	-13648
alahannya	-13649
▁..."	-13650
▁praktisi	-13651
aganya	-13652
eritanya	-13653
implement	-13654
▁memberinya	-13655
▁kutub	-13656
▁pinggiran	-13657
▁crus	-13658
▁kesak	-13659
▁pemotongan	-13660
▁geografi	-13661
▁keis	-13662
▁syaraf	-13663
▁diharuskan	-13664
▁diajar	-13665
▁mereferens	-13666
▁penjudi	-13667
alinya	-13668
▁penjajahan	-13669
eth	-13670
▁berteman	-13671
▁bersenang	-13672
▁didengar	-13673
visi	-13674
▁background	-13675
▁heula	-13676
▁dampaknya	-13677
▁menyertakan	-13678
▁rsud	-13679
▁cicilan	-13680
▁membenci	-13681
▁photoshop	-13682
▁gerindra	-13683
ters	-13684
ilmuan	-13685
▁kiper	-13686
tujuh	-13687
▁berantakan	-13688
▁station	-13689
▁jajanan	-13690
▁gurun	-13691
▁terbenam	-13692
▁demokratis	-13693
▁dikelilingi	-13694
▁sengketa	-13695
▁kelaparan	-13696
▁berkesan	-13697
▁indom	-13698
▁glukosa	-13699
▁mengamalkan	-13700
▁kungsi	-13701
eal	-13702
▁meni	-13703
▁kanca	-13704
aguan	-13705
▁east	-13706
▁santa	-13707
▁pemutih	-13708
▁kelangsungan	-13709
▁terobosan	-13710
▁sulsel	-13711
▁memikat	-13712
▁kasat	-13713
▁ngandika	-13714
▁betawi	-13715
▁dikendalikan	-13716
▁lia	-13717
▁menargetkan	-13718
▁dicintai	-13719
▁hepatitis	-13720
▁selingkuh	-13721
▁nyuwun	-13722
▁berhubung	-13723
▁pencatatan	-13724
▁kemir	-13725
▁hpv	-13726
▁brid	-13727
▁tuduhan	-13728
▁bingk	-13729
▁catalog	-13730
▁ultra	-13731
▁mili	-13732
▁acéh	-13733
▁bangsawan	-13734
▁percayalah	-13735
▁masyarakatnya	-13736
▁bedak	-13737
▁khasiatnya	-13738
▁dukun	-13739
▁berkontribusi	-13740
▁familiar	-13741
▁kerep	-13742
▁balok	-13743
▁uin	-13744
▁louis	-13745
▁thr	-13746
sos	-13747
▁bagimu	-13748
imax	-13749
▁puting	-13750
▁ngaku	-13751
▁keilmuan	-13752
▁sirsak	-13753
▁washington	-13754
▁nick	-13755
▁december	-13756
heng	-13757
▁merindukan	-13758
▁jempol	-13759
▁imbuhnya	-13760
▁digit	-13761
uliahan	-13762
ohongan	-13763
yarakatan	-13764
▁kubur	-13765
pay	-13766
indarkan	-13767
▁antena	-13768
▁teknisi	-13769
▁griya	-13770
lanjut	-13771
▁manc	-13772
▁services	-13773
▁,,,,	-13774
▁keatas	-13775
▁mengendarai	-13776
▁kesedihan	-13777
entur	-13778
▁disembuhkan	-13779
▁undian	-13780
▁anwar	-13781
▁statis	-13782
▁keji	-13783
▁nugr	-13784
▁curah	-13785
▁lali	-13786
▁keimanan	-13787
▁mesum	-13788
▁ask	-13789
▁chart	-13790
▁bayang	-13791
▁ox	-13792
▁cilacap	-13793
▁105	-13794
▁reward	-13795
alar	-13796
▁kepe	-13797
sum	-13798
▁front	-13799
▁syafi	-13800
▁financ	-13801
▁putrinya	-13802
anza	-13803
▁heart	-13804
▁berkompet	-13805
▁security	-13806
tisida	-13807
▁slamet	-13808
▁racing	-13809
▁substansi	-13810
▁insulin	-13811
▁small	-13812
▁after	-13813
▁anemia	-13814
▁kecanduan	-13815
▁mewarn	-13816
▁kearah	-13817
▁skuad	-13818
▁kesuburan	-13819
▁finance	-13820
▁aqiq	-13821
▁sembarang	-13822
▁tj	-13823
▁melanda	-13824
▁pelac	-13825
▁pembacaan	-13826
▁dijieun	-13827
▁transisi	-13828
orr	-13829
▁direksi	-13830
orama	-13831
▁wayah	-13832
▁beat	-13833
▁areal	-13834
▁investig	-13835
▁dipertahankan	-13836
abus	-13837
▁idol	-13838
▁berstatus	-13839
▁mahasiswi	-13840
▁academy	-13841
elu	-13842
▁pucuk	-13843
araku	-13844
▁diset	-13845
▁cloud	-13846
▁berlangg	-13847
▁terlahir	-13848
▁0813	-13849
egasi	-13850
▁silih	-13851
▁asmara	-13852
pem	-13853
▁membantah	-13854
▁ismail	-13855
▁jumpai	-13856
▁jeans	-13857
▁provider	-13858
▁tulisannya	-13859
▁sabda	-13860
▁sedikitpun	-13861
▁kurma	-13862
▁wasit	-13863
aging	-13864
peng	-13865
▁beneran	-13866
angsangan	-13867
▁memperingati	-13868
65	-13869
foto	-13870
▁berked	-13871
▁lawang	-13872
agara	-13873
▁perkuliahan	-13874
▁mutasi	-13875
▁komisaris	-13876
▁xp	-13877
▁kejaksaan	-13878
erin	-13879
▁kebangsaan	-13880
▁curiga	-13881
▁disfungsi	-13882
▁didefinisikan	-13883
▁algoritma	-13884
▁pensil	-13885
▁beresiko	-13886
▁gorontalo	-13887
▁ngasih	-13888
▁pemantauan	-13889
▁maxs	-13890
▁hijrah	-13891
▁terlupakan	-13892
▁menanamkan	-13893
▁terbaiknya	-13894
▁klaten	-13895
▁mendampingi	-13896
▁kiriman	-13897
gy	-13898
▁gong	-13899
▁menipu	-13900
▁samém	-13901
ict	-13902
▁marak	-13903
▁nkri	-13904
ategorikan	-13905
▁ditandatangani	-13906
▁kalam	-13907
oksida	-13908
▁laund	-13909
▁diresm	-13910
▁asn	-13911
▁tinimbang	-13912
bia	-13913
▁lansia	-13914
iskusikan	-13915
▁biner	-13916
unaikan	-13917
▁kangj	-13918
▁interaktif	-13919
vak	-13920
▁wani	-13921
arge	-13922
▁berbalik	-13923
▁wp	-13924
▁keseharian	-13925
▁selepas	-13926
▁invest	-13927
▁pojok	-13928
▁supir	-13929
▁keharusan	-13930
▁sasi	-13931
▁estimasi	-13932
▁teruji	-13933
▁kung	-13934
▁kurban	-13935
wil	-13936
▁dihadapkan	-13937
▁tumpukan	-13938
esankan	-13939
▁wijaya	-13940
▁uts	-13941
▁negosiasi	-13942
rem	-13943
▁resepsi	-13944
▁bertambahnya	-13945
▁kekaisaran	-13946
okasikan	-13947
▁pai	-13948
▁liputan	-13949
▁wedding	-13950
▁megah	-13951
▁penyuluhan	-13952
jad	-13953
▁perkasa	-13954
hou	-13955
ano	-13956
▁mingguan	-13957
▁gelisah	-13958
▁sosiologi	-13959
▁gandum	-13960
▁91	-13961
ulangi	-13962
▁supados	-13963
▁polandia	-13964
▁duc	-13965
▁niaga	-13966
▁beuki	-13967
enerasi	-13968
▁hara	-13969
▁chang	-13970
▁sabu	-13971
other	-13972
▁belakangnya	-13973
▁him	-13974
▁hih	-13975
oting	-13976
▁memuk	-13977
▁integrasi	-13978
▁hacker	-13979
▁pancen	-13980
▁maf	-13981
▁diamati	-13982
▁indung	-13983
▁mencur	-13984
hor	-13985
emik	-13986
▁shad	-13987
▁adver	-13988
▁traveling	-13989
▁ditindak	-13990
▁adaptasi	-13991
ajakan	-13992
▁exc	-13993
▁paypal	-13994
awak	-13995
▁monyet	-13996
▁konstan	-13997
▁adek	-13998
yok	-13999
▁bayern	-14000
arki	-14001
▁merumuskan	-14002
▁face	-14003
▁sistim	-14004
▁sekolahnya	-14005
49	-14006
▁mencantumkan	-14007
▁kij	-14008
▁hendaklah	-14009
▁tangtu	-14010
▁dibayarkan	-14011
▁dihilangkan	-14012
▁komedi	-14013
▁adap	-14014
▁kakaknya	-14015
iasakan	-14016
▁dadu	-14017
▁memproses	-14018
▁berdiam	-14019
ekutu	-14020
▁tunduk	-14021
▁pendak	-14022
▁blueto	-14023
▁175	-14024
▁arch	-14025
▁bersenjata	-14026
▁ceritakan	-14027
▁fix	-14028
▁pemadam	-14029
▁bule	-14030
ident	-14031
▁tuwan	-14032
▁tegese	-14033
fone	-14034
▁mukmin	-14035
▁modus	-14036
▁trek	-14037
mau	-14038
▁watu	-14039
▁rezim	-14040
▁sgp	-14041
▁mencolok	-14042
▁penyaluran	-14043
▁watch	-14044
▁memaksakan	-14045
▁nyamp	-14046
▁bersepeda	-14047
umpah	-14048
▁beritahu	-14049
▁lara	-14050
▁lamongan	-14051
▁two	-14052
▁mewarnai	-14053
ls	-14054
▁information	-14055
umbangkan	-14056
▁sifilis	-14057
▁penat	-14058
▁atanapi	-14059
▁fosil	-14060
▁negaranya	-14061
trin	-14062
▁menganalisa	-14063
▁muridnya	-14064
▁pund	-14065
▁disem	-14066
▁reserv	-14067
▁tung	-14068
▁dadanya	-14069
▁proto	-14070
▁mec	-14071
▁berfoto	-14072
▁porn	-14073
face	-14074
▁perbelanja	-14075
▁keraton	-14076
▁hadist	-14077
▁dd	-14078
▁ketujuh	-14079
▁langganan	-14080
▁bê	-14081
▁pinang	-14082
▁pengap	-14083
ody	-14084
▁blora	-14085
▁haus	-14086
▁watt	-14087
▁ditanggung	-14088
awei	-14089
▁portugis	-14090
▁diteliti	-14091
▁habitat	-14092
▁kenalan	-14093
▁menyegarkan	-14094
come	-14095
▁geb	-14096
▁mengagumkan	-14097
▁kelembab	-14098
▁persidangan	-14099
▁nego	-14100
atannya	-14101
covery	-14102
lukkan	-14103
▁lady	-14104
▁dilantik	-14105
▁pastilah	-14106
embaga	-14107
▁board	-14108
▁chic	-14109
▁mub	-14110
▁5000	-14111
acun	-14112
▁ral	-14113
▁keraguan	-14114
iptanya	-14115
▁harum	-14116
▁umrah	-14117
▁akupun	-14118
▁dhuwit	-14119
▁anat	-14120
▁bluetooth	-14121
rie	-14122
iew	-14123
▁ketebalan	-14124
▁kepegaw	-14125
▁catering	-14126
eknik	-14127
▁tatto	-14128
▁wkwkwk	-14129
▁pinggul	-14130
▁herb	-14131
▁tauhid	-14132
▁mendid	-14133
mal	-14134
▁mesthi	-14135
▁desainnya	-14136
▁kob	-14137
▁aisyah	-14138
▁kesembuhan	-14139
epankan	-14140
▁tuwa	-14141
▁kuna	-14142
efisi	-14143
▁mete	-14144
▁camera	-14145
elangan	-14146
▁options	-14147
audara	-14148
▁1979	-14149
▁busuk	-14150
ashi	-14151
▁wirausaha	-14152
▁rumor	-14153
▁berlangganan	-14154
▁mengesankan	-14155
utasi	-14156
▁fs	-14157
▁manga	-14158
▁tandasnya	-14159
▁mempertanyakan	-14160
▁1978	-14161
▁basuki	-14162
▁magic	-14163
▁perbelanjaan	-14164
▁pamaké	-14165
▁mary	-14166
▁bahasan	-14167
▁nuran	-14168
▁selat	-14169
▁deklar	-14170
▁october	-14171
▁simpang	-14172
py	-14173
▁pelay	-14174
▁sepatutnya	-14175
▁vivo	-14176
▁realisasi	-14177
amerkan	-14178
mit	-14179
yol	-14180
▁huawei	-14181
▁berbaring	-14182
▁outlet	-14183
▁magang	-14184
online	-14185
▁mengenalkan	-14186
adasi	-14187
lit	-14188
▁hakekat	-14189
▁sula	-14190
▁mengklik	-14191
oordinasi	-14192
▁dot	-14193
▁naras	-14194
▁arteri	-14195
yim	-14196
▁ganas	-14197
▁community	-14198
▁tingkatkan	-14199
ukat	-14200
▁mendo	-14201
▁lampah	-14202
urr	-14203
▁akad	-14204
▁sepup	-14205
▁purnama	-14206
▁merapi	-14207
▁ou	-14208
▁resist	-14209
▁rr	-14210
▁maranéhna	-14211
osofi	-14212
▁perbuatannya	-14213
▁kerudung	-14214
▁request	-14215
▁wort	-14216
▁optik	-14217
▁ghz	-14218
▁shamp	-14219
cs	-14220
ibar	-14221
▁spring	-14222
▁eka	-14223
tiar	-14224
▁meluncur	-14225
▁kalung	-14226
▁kulakukan	-14227
▁penggantian	-14228
▁101	-14229
▁hye	-14230
▁banner	-14231
unduran	-14232
▁bertepatan	-14233
adwalkan	-14234
▁diperl	-14235
▁forkl	-14236
▁permainannya	-14237
▁fatwa	-14238
▁mekanik	-14239
anggal	-14240
▁imunisasi	-14241
▁quality	-14242
▁mojokerto	-14243
▁1974	-14244
abilitasi	-14245
▁eksis	-14246
▁kahanan	-14247
▁jln	-14248
▁berlomba	-14249
▁diker	-14250
▁mencabut	-14251
▁seberang	-14252
eksikan	-14253
anga	-14254
▁tembakau	-14255
▁sajak	-14256
ely	-14257
▁.“	-14258
▁laa	-14259
▁honor	-14260
▁akik	-14261
▁dihadapan	-14262
▁aranjeunna	-14263
▁sali	-14264
▁penyalahgunaan	-14265
idak	-14266
▁pasc	-14267
▁pencuri	-14268
oné	-14269
▁pulak	-14270
▁kompreh	-14271
▁bim	-14272
▁melingk	-14273
acancy	-14274
▁nasehat	-14275
▁lsm	-14276
▁diserang	-14277
▁nemb	-14278
▁bagaimanakah	-14279
▁mengalihkan	-14280
▁patokan	-14281
▁koment	-14282
▁menjelajahi	-14283
▁orangtuanya	-14284
▁idi	-14285
▁syekh	-14286
▁rangsangan	-14287
▁pelaksanaannya	-14288
▁nurut	-14289
▁jup	-14290
▁pelantikan	-14291
▁gg	-14292
▁based	-14293
engaran	-14294
▁sahabatnya	-14295
▁kaitan	-14296
▁extr	-14297
▁argumen	-14298
▁360	-14299
▁faham	-14300
▁warnet	-14301
▁pencinta	-14302
edu	-14303
unge	-14304
▁seraya	-14305
▁jelang	-14306
▁kelancaran	-14307
▁retail	-14308
▁pj	-14309
▁edi	-14310
▁airlines	-14311
▁penuaan	-14312
▁forklift	-14313
▁deretan	-14314
▁cewe	-14315
▁almar	-14316
arau	-14317
▁mlebu	-14318
▁menyembah	-14319
pack	-14320
▁khus	-14321
▁biologis	-14322
utat	-14323
▁uskup	-14324
▁pamer	-14325
▁gambarnya	-14326
cp	-14327
▁pribumi	-14328
▁ketet	-14329
▁jemput	-14330
▁kepegawaian	-14331
▁coffee	-14332
▁sirkuit	-14333
▁abah	-14334
▁year	-14335
▁aqiqah	-14336
▁ambisi	-14337
▁dilepas	-14338
▁emak	-14339
▁nemu	-14340
▁diriwayatkan	-14341
▁bann	-14342
▁ani	-14343
kov	-14344
▁monggo	-14345
▁biodata	-14346
emur	-14347
stein	-14348
▁konk	-14349
▁berjudi	-14350
▁menyedihkan	-14351
▁tetes	-14352
▁singkong	-14353
hususkan	-14354
▁jengk	-14355
▁report	-14356
md	-14357
▁amino	-14358
▁efektivitas	-14359
▁cot	-14360
46	-14361
entah	-14362
▁mengga	-14363
▁pembatasan	-14364
▁entry	-14365
▁asup	-14366
▁diagnosis	-14367
▁kewar	-14368
apati	-14369
umsinya	-14370
ces	-14371
▁educ	-14372
▁sebanding	-14373
▁brazil	-14374
pam	-14375
alaba	-14376
▁diabaikan	-14377
▁ffff	-14378
▁square	-14379
etiap	-14380
▁surah	-14381
▁wu	-14382
▁cpu	-14383
▁gym	-14384
ores	-14385
▁)..	-14386
▁dilepaskan	-14387
dayakan	-14388
▁jilid	-14389
▁hidupmu	-14390
▁kesempurnaan	-14391
assi	-14392
ungutan	-14393
▁berpel	-14394
▁melintas	-14395
▁:(	-14396
▁kesaksian	-14397
agri	-14398
▁mengunakan	-14399
▁penghubung	-14400
sch	-14401
▁perpisahan	-14402
▁menikahi	-14403
truk	-14404
aritas	-14405
esalan	-14406
cast	-14407
iruan	-14408
▁mered	-14409
▁yaaa	-14410
▁nuju	-14411
elajar	-14412
eula	-14413
▁nged	-14414
▁bergi	-14415
▁?!	-14416
cik	-14417
▁radar	-14418
▁sugih	-14419
▁coleoptera	-14420
ocus	-14421
▁mother	-14422
▁laundry	-14423
▁keten	-14424
▁pikirannya	-14425
▁kasir	-14426
▁getaran	-14427
▁nggih	-14428
▁perpindahan	-14429
acita	-14430
▁pilpres	-14431
▁macan	-14432
anderol	-14433
▁khilaf	-14434
▁kahir	-14435
▁santan	-14436
▁ditinjau	-14437
ehatkan	-14438
▁nie	-14439
▁sirih	-14440
▁narkotika	-14441
eport	-14442
▁indrama	-14443
ampakkan	-14444
▁gsm	-14445
▁tpi	-14446
▁paring	-14447
▁membuahkan	-14448
▁shock	-14449
▁koreksi	-14450
▁brosur	-14451
▁penyerapan	-14452
▁rahman	-14453
▁parang	-14454
arth	-14455
▁banking	-14456
▁awas	-14457
▁keluarg	-14458
apar	-14459
▁putera	-14460
buku	-14461
▁navigasi	-14462
dm	-14463
▁wig	-14464
ungkeun	-14465
▁letakkan	-14466
ajeng	-14467
buhi	-14468
▁dup	-14469
enggal	-14470
▁resto	-14471
▁kemandirian	-14472
yatan	-14473
▁él	-14474
usk	-14475
▁dicuri	-14476
▁nongk	-14477
▁melambangkan	-14478
▁varietas	-14479
▁diagram	-14480
▁diputar	-14481
ênêng	-14482
▁nila	-14483
▁ngirim	-14484
▁crusher	-14485
jack	-14486
▁defa	-14487
▁expl	-14488
▁pembebasan	-14489
▁digawe	-14490
▁federal	-14491
resentasikan	-14492
engka	-14493
▁diusung	-14494
▁panggang	-14495
ison	-14496
yd	-14497
▁pembek	-14498
otes	-14499
▁mendekatkan	-14500
▁petrus	-14501
▁satria	-14502
▁biografi	-14503
▁bergantian	-14504
▁debat	-14505
▁rpm	-14506
▁carane	-14507
▁menyapa	-14508
▁sentra	-14509
▁other	-14510
▁nemp	-14511
▁ojek	-14512
▁institute	-14513
▁runtuh	-14514
▁wireless	-14515
▁integ	-14516
▁mengadopsi	-14517
ebird	-14518
▁ngin	-14519
▁bersaudara	-14520
▁è	-14521
▁rog	-14522
71	-14523
▁lod	-14524
fil	-14525
▁bergegas	-14526
▁gub	-14527
▁blogging	-14528
▁indramayu	-14529
▁please	-14530
▁dioperasikan	-14531
▁pemikir	-14532
apatkan	-14533
ebutkan	-14534
▁hoax	-14535
▁caw	-14536
▁mengasihi	-14537
▁kembangkan	-14538
▁pemungutan	-14539
▁herman	-14540
▁memand	-14541
tai	-14542
▁jamin	-14543
▁kompor	-14544
▁penularan	-14545
▁futu	-14546
▁pernaf	-14547
entrian	-14548
▁percetakan	-14549
▁sekelas	-14550
▁ciptakan	-14551
▁dida	-14552
▁njupuk	-14553
▁dayak	-14554
▁bale	-14555
ople	-14556
▁rai	-14557
▁kaleng	-14558
▁polis	-14559
areng	-14560
▁mencarikan	-14561
▁airport	-14562
▁berlian	-14563
▁diwujudkan	-14564
▁kemerahan	-14565
▁diberitakan	-14566
▁bahwasanya	-14567
asing	-14568
imut	-14569
▁nyonya	-14570
▁menggantung	-14571
▁ketegangan	-14572
▁berjumpa	-14573
▁wester	-14574
▁waris	-14575
▁terpenc	-14576
▁lapor	-14577
▁fotonya	-14578
▁...]	-14579
▁1975	-14580
ampar	-14581
▁vaginanya	-14582
undh	-14583
▁elit	-14584
▁pelep	-14585
▁ér	-14586
db	-14587
▁beku	-14588
▁negri	-14589
▁monumen	-14590
▁solar	-14591
▁lonc	-14592
usuran	-14593
▁supportnya	-14594
▁115	-14595
▁menginstal	-14596
▁haj	-14597
▁wortel	-14598
▁austria	-14599
ungkul	-14600
▁paduka	-14601
▁terlarang	-14602
▁salep	-14603
▁mataku	-14604
▁bahannya	-14605
▁nyanyi	-14606
▁semu	-14607
implementasikan	-14608
▁engga	-14609
iaman	-14610
▁vet	-14611
▁rekannya	-14612
ingal	-14613
▁komprehensif	-14614
▁220	-14615
uha	-14616
▁pab	-14617
isisi	-14618
▁terburuk	-14619
eraian	-14620
▁singgah	-14621
▁nona	-14622
▁purwak	-14623
▁soda	-14624
▁mangka	-14625
▁memulihkan	-14626
▁berisikan	-14627
▁segel	-14628
aster	-14629
▁intan	-14630
akmuran	-14631
akuasi	-14632
▁membran	-14633
muat	-14634
yad	-14635
▁move	-14636
▁pv	-14637
aminasi	-14638
▁camb	-14639
▁megaw	-14640
85	-14641
▁arief	-14642
▁sejajar	-14643
▁lift	-14644
▁narasumber	-14645
kum	-14646
▁kompak	-14647
ahh	-14648
▁kemarau	-14649
▁default	-14650
▁kesepian	-14651
▁kolot	-14652
▁menehi	-14653
▁bibirnya	-14654
▁sarah	-14655
▁startup	-14656
▁berbuah	-14657
▁menjemput	-14658
▁nyaho	-14659
▁profile	-14660
▁muter	-14661
▁seksama	-14662
▁aduan	-14663
▁opera	-14664
▁terpopuler	-14665
▁silang	-14666
▁copyright	-14667
gung	-14668
ongi	-14669
▁anggun	-14670
▁debit	-14671
▁dipake	-14672
▁tuban	-14673
▁mitsub	-14674
▁ilahi	-14675
▁serbuk	-14676
▁sinus	-14677
▁asp	-14678
entik	-14679
▁silabus	-14680
▁sorry	-14681
▁!.	-14682
▁neraca	-14683
▁repub	-14684
tos	-14685
▁capai	-14686
▁ue	-14687
edhi	-14688
▁ransel	-14689
[...]
